#version: 0.2 - Trained by `huggingface/tokenizers`
Ġ t
h e
Ġ a
Ġ ,
Ġ s
Ġ w
i n
Ġt he
n d
r e
Ġ o
Ġ .
Ġ h
Ġ b
o u
e r
Ġa nd
Ġ f
e d
i t
Ġ m
a t
Ġt o
Ġ '
Ġ c
Ġ he
in g
i s
l l
Ġ d
Ġ l
Ġt h
a s
e n
Ġ n
o r
a r
Ġo f
a n
Ġ p
e s
Ġ g
o n
a d
Ġ in
o w
l e
Ġb e
l d
o m
Ġ I
u t
i d
Ġ y
Ġw as
o t
` `
Ġ' '
g h
i m
Ġy ou
v e
Ġ it
l y
v er
Ġth at
Ġ e
a y
Ġo n
e t
s e
s t
Ġw h
Ġhe r
i c
Ġf or
Ġa s
Ġ u
i r
gh t
Ġh is
a c
o o
it h
Ġh a
Ġh ad
Ġs t
Ġ r
Ġw ith
Ġw e
Ġs he
Ġs a
ou ld
Ġ re
en t
i ll
he r
k e
Ġ M
Ġh im
u r
Ġa n
T he
i f
a m
Ġn ot
Ġs o
i ght
Ġs e
a l
c h
Ġ ;
t er
Ġs h
Ġa t
Ġ k
Ġ is
Ġd o
Ġm e
c e
' t
om e
Ġb ut
Ġa ll
re d
Ġsa id
a ll
r i
Ġ -
Ġw he
Ġn e
o re
Ġu p
Ġha ve
u n
a in
i l
Ġthe y
Ġ !
Ġ S
Ġ ?
Ġ B
it t
p p
Ġ A
r o
ver y
Ġl i
Ġ- -
u st
Ġm y
Ġ P
Ġs u
i on
e l
k ed
es s
ar d
in d
Ġk n
Ġo ut
Ġwe re
oo d
Ġf r
itt le
u l
Ġ W
ou t
Ġw ould
e ll
ow n
r a
on g
Ġon e
Ġg o
an t
as t
Ġthe m
H e
Ġwhe n
Ġc h
Ġse e
Ġs p
r y
q u
u s
Ġ C
Ġl ittle
Ġn o
ac k
es t
Ġd e
Ġ if
Ġ j
t h
ou nd
Ġ J
Ġwh o
l f
Ġa l
Ġ D
Ġ G
Ġthe re
Ġ ``
Ġc ould
Ġb y
Ġa b
on e
g e
Ġth is
Ġfr om
Ġ F
i e
ic h
Ġm an
Ġ T
a nd
a b
Ġl oo
a u
Ġ very
am e
ar t
Ġw or
Ġd id
Ġw ill
ou gh
w ay
Ġl e
he d
c t
Ġo r
Ġin t
k ing
a ke
ac e
Ġb r
Ġ L
e p
s s
Ġli ke
Ġwh ich
it e
ou r
Ġwh at
Ġ R
Ġ v
se lf
ot her
Ġo ver
ou s
Ġp l
Ġan y
o p
Ġb o
Ġa re
re at
e red
Ġf e
u m
c k
Ġ qu
Ġthe ir
i g
Ġbe en
Ġyou r
Ġt im
a p
Ġ H
B ut
Ġr o
Ġo ld
Ġab out
Ġl o
Ġa f
Ġd own
ou ght
er s
Ġkn ow
is t
Ġa g
Ġint o
Ġ O
h ing
id e
Ġ `
v en
n e
ĠM r
Ġe x
Ġp o
Ġp r
Ġ N
Ġto o
a re
Ġne ver
Ġt r
in k
at her
nd er
ic e
u re
Ġb l
Ġtim e
Ġs ome
ri ed
Ġc om
t her
Ġth an
Ġu n
Ġc ame
I t
Ġa m
Ġg r
Ġc on
Ġg ood
Ġd ay
h at
Ġm ore
Ġl ong
i ve
ad e
Ġj ust
at e
u ll
Ġw ent
a k
or t
e ar
ur n
f ore
ic k
Ġc an
v ed
Ġc l
o se
d y
Ġthe n
re e
Ġn ow
Ġha nd
Ġs ay
A nd
Ġf l
a g
Ġag ain
f ul
Ġm u
Ġt w
i ld
Ġb ack
e nd
Ġth ing
S he
Ġu s
e m
Ġc o
Ġp re
p t
n g
Ġo ther
Ġth ought
in e
Ġbe fore
i le
Ġa r
Ġa way
or n
Ġg et
Ġc ome
Y ou
is h
e ct
Ġmu ch
Ġaf ter
Ġh ow
Ġw ay
Ġe y
Ġg reat
w n
Ġwhe re
l ed
Ġf o
Ġp e
Ġm ade
Ġof f
Ġm o
Ġ en
Ġm ust
a ir
l i
Ġe very
a ve
Ġon ly
Ġs m
ou se
Ġ :
Ġth ink
b le
u e
Ġth r
all y
Ġ E
ir l
as s
Ġbe g
t y
Ġbo y
Ġd re
if e
Ġsh ould
Ġw o
is s
he n
Ġhe ad
et er
an g
Ġh as
n t
Ġg l
a id
Ġs w
e w
The n
Ġ K
Ġey es
Ġh ome
a v
at ion
Ġw at
Ġwe ll
ab le
en ed
ar m
i es
d d
Ġloo ked
Ġt ell
ĠJ o
Ġe ven
Ġs c
Ġsu ch
f t
Ġ ke
i ous
an ce
Ġd is
i ly
b er
Ġbe c
Ġg irl
Ġf ir
Ġst r
oo k
Ġw ant
Ġhe re
Ġe ver
Ġha pp
in ce
Ġhim self
Ġsa w
ad y
om et
i re
Ġbe t
Ġl et
Ġch ild
ĠMr s
Ġsee m
Ġg ot
t ed
Ġu nder
Ġloo k
Ġm ake
Ġtw o
Ġl ast
it y
o l
Ġp ro
ac h
ar k
n ne
Ġup on
Ġo wn
Ġn ight
Ġyou ng
Ġgo ing
Ġh ouse
The re
Ġhe art
ow s
ĠP eter
Ġm ight
a ge
Ġp ut
is e
Ġkn ew
Ġs omet
v ing
way s
Ġ im
Ġf ace
Ġfir st
Ġa c
Ġthr ough
t ing
Ġsh all
th ing
au se
The y
Ġt urn
i p
f f
Ġre m
Ġal ways
Ġf ound
oo l
pp ed
Ġr ight
Ġto ld
o s
s w
m y
a red
Ġwh ile
v es
Ġo ur
Ġt ake
op le
au ght
Ġs at
at h
le as
Ġbe l
Ġc all
re n
Ġlo ve
p er
u ck
Ġm other
Ġtoo k
t ain
b o
S o
Ġon ce
Ġt ill
en ce
Ġp er
Ġqu ite
Ġthing s
Ġg re
w ard
ou nt
Ġre p
n y
Ġpe ople
Ġan sw
l es
i ed
ĠM ar
he s
Ġe ar
Ġst ill
Ġc r
Ġy ear
W hen
Ġhe ard
Ġso on
u d
Ġh o
Ġf ind
n ess
Ġne w
ri end
Ġa pp
Ġwor d
or y
ĠA nne
Ġs et
ĠC h
Ġit s
Ġw om
g et
Ġm ar
o y
an c
a il
m ent
Ġnot hing
or d
l ing
c o
Ġh ard
Ġp leas
l p
Ġbec ause
Ġf riend
Ġde ar
l ess
a ut
el t
ull y
c hed
Ġl ife
Ġp art
s h
ot h
Ġf ell
un g
Ġdo or
un t
Ġsomet hing
Ġfe el
Ġ You
Ġhe lp
Ġl au
Ġbeg an
Ġpl ace
Ġhand s
Ġt al
Ġg ive
Ġr ound
ĠI t
Ġo p
Ġth ough
x t
a king
c ess
Ġm ay
Ġseem ed
Ġb ig
Ġk ing
Ġt e
Ġman y
Ġf ather
an k
Ġw r
ow ed
Ġa d
Ġex p
e re
Ġc are
Ġw ind
Ġbet ter
Ġf elt
Ġc our
on s
Ġv o
Ġbe h
Ġsu re
bo dy
Ġan other
Ġmo st
Ġbe aut
Ġw a
i gh
Ġd one
Ġh or
Ġs l
c l
Ġ Y
Ġk ind
g g
Ġpo or
i a
f ully
e en
e ver
Ġm ind
ĠP r
Ġle ft
Ġd es
Ġc a
Ġc ar
Ġwor ld
s p
Ġen ough
Ġg ave
R B
Ġke ep
ĠS t
ĠO h
Ġwith out
ot t
ra nd
Ġpre t
Ġwat er
Ġwom an
at ter
ĠW h
re ss
i red
Ġansw ered
T h
Ġse en
o st
Ġbe ing
Ġc he
n ing
U n
s aid
Ġth ose
a w
Ġher self
Ġs un
u b
re t
Ġth ree
i an
Ġp ass
Ġs n
ĠM iss
at ed
Ġthe se
Ġs le
m e
ro ss
k s
Ġre t
r ow
Ġany thing
ar y
ĠT h
Ġw al
Ġc ried
Ġro om
is hed
Ġcom p
Ġ He
Ġh op
um p
Ġt re
ent ly
ing s
Ġvo ice
ou d
Ġwh ite
Ġsp e
o ot
Ġb est
Ġ The
ĠB r
Ġloo king
ac t
Ġbel ie
ill a
I n
Ġt ry
Ġas ked
Ġe nd
Ġf ar
Ġs il
m an
Ġm en
Ġr un
Ġg i
Ġm orn
Ġhe ar
Ġd el
e ad
Ġyear s
ĠA nd
Ġchild ren
Ġsu pp
Ġwor k
if f
Ġne ar
Ġy et
Ġne xt
Ġm in
Ġg u
Ġg one
ĠW hat
Ġmorn ing
Ġim p
Ġc le
ion s
Ġpl ay
Ġturn ed
Ġbeh ind
Ġm om
Ġb ed
Ġcour se
Ġmom ent
Ġre st
Ġin d
Ġl ight
ir d
ra ve
Ġha lf
if ul
Ġb re
Ġwo nder
it her
is ter
Ġe at
Ġwa it
Ġl ay
en s
ĠR ed
N ow
Ġme an
Ġb us
Ġar m
Ġ Un
Ġst ood
Ġs k
Ġd ark
ig n
Ġre ally
he re
Ġd r
A t
i z
Ġe ach
ur p
Ġcon t
at ch
Ġf ull
Ġdo es
Ġc ur
Ġe l
h n
a pp
Ġb it
Ġsp o
an ge
ap s
n er
er ry
Ġfo ll
Ġcall ed
o ck
W e
ĠN o
Ġh ur
ĠK ing
Ġbeaut iful
b it
o d
get her
Ġun t
ar n
Ġsw e
I f
Ġal ong
Ġr ather
se l
Ġbl ack
Ġb ro
as ter
Ġret urn
Ġf air
Ġgo ld
dd en
Ġam ong
er tain
as ked
A s
at t
c le
a le
in t
f ort
Ġs er
ill y
Ġs ide
Ġpret ty
m er
Ġrem em
in cess
a h
ĠD o
Ġfor g
Ġin st
Ġd ra
Ġb oth
is ed
Ġ ent
li ed
ĠO ld
Ġt ree
Ġo b
Ġgl ad
Ġsa me
e ed
ĠD an
re en
i ble
Ġa ir
Ġw ife
am p
Ġfe w
Ġre d
Ġboy s
Ġsp r
Ġa w
Ġr an
in ess
i et
Ġf ore
ĠB ut
u nd
Ġhapp y
i ver
Ġne ed
m ost
ĠW ell
id d
Ġs ince
Ġbelie ve
Ġst o
ĠJo hn
o x
Ġbr ought
Ġw ood
Ġgirl s
ic t
Ġ Q
Ġcon s
Ġday s
a z
l and
ĠG reen
i x
u p
Ġm atter
Ġs ound
T hat
Ġlau gh
e c
Ġ V
ul t
Ġunt il
itt ing
Ġop en
Ġdre am
Ġd ro
Ġs ent
ow ing
Ġswe et
Ġcom ing
Ġha ir
Ġst re
Ġpre s
E R
ĠA unt
Ġrep lied
ra id
ĠA l
ow er
Ġsu dden
aught er
Th is
o nd
e k
Ġtr ou
s ide
Ġto gether
Ġf ire
Ġwho le
Ġst art
g s
Ġd ist
Ġsm all
b y
Ġsle ep
o ld
et h
Ġdre ss
Ġmin ut
Ġj o
er y
Ġc ount
Ġeven ing
Ġe m
Ġpr om
Ġn ame
Ġke pt
Ġsay s
h aps
M r
Ġt er
Ġwh y
ĠF ox
b ed
Ġw ish
Ġc ry
d ay
Ġwant ed
Ġel se
ak en
Ġfe et
Ġword s
Ġb ad
Ġre s
Ġal most
ĠY es
out h
ĠG r
Ġc ertain
Ġse a
Ġal one
Ġre ad
as h
Ġde ad
Ġac c
e y
Ġagain st
Ġmy self
Ġst and
ill ed
ure s
Ġst ory
o on
i b
Ġbr other
Ġth in
Ġb u
Ġaf raid
Ġli ve
Ġl ist
Ġf all
Ġs or
Ġat t
ĠT om
Ġl ad
an e
Ġh our
Ġst ay
Ġre al
Ġgre w
s o
ie f
g hed
ar s
Ġu se
ĠRed dy
Ġs on
Ġn or
g ed
Ġs ight
in s
Ġac ross
Ġl ady
f oot
Ġhor se
or s
Ġst e
il ed
i er
Ġf un
Ġhop e
if t
Ġso ft
Ġan g
in ed
k en
ĠJ im
Ġbr ing
p s
Ġwat ch
Ġs ch
ac hed
W hat
Ġe as
ĠW e
ĠT hat
ang er
one y
Ġor d
Ġf am
Ġas k
Ġt ried
Ġunder st
Ġpr ince
f ect
Ġh ung
Ġg ent
o ss
Ġs ing
Ġbr ight
Ġus ed
Ġar ound
ie ld
Ġf ast
f ather
Ġlo st
Ġy e
Ġc ap
ab bit
Ġst ra
il ing
Ġre ady
ce pt
ĠB l
Ġlau ghed
t en
Ġbl ue
Ġcom fort
ak es
Ġle ave
L RB
R RB
W h
o b
rand father
u c
it s
Ġh ill
Ġb ook
im es
um b
Ġfe ar
Ġm on
un k
Ġhapp ened
Ġa dd
or m
Ġs itting
sel ves
Ġp al
v ent
c ried
ĠL ittle
Ġho ld
Ġtal k
Ġdel ight
w een
Ġn ice
Ġs ister
Ġgent le
Ġof ten
ar l
N o
re w
F or
Ġs urp
Ġs ort
Ġtim es
arm er
Ġb es
ll y
Ġd iff
Ġevery thing
le w
le t
f e
Ġb ird
p h
en se
Ġsay ing
Ġli ved
Ġwind ow
Ġpo ss
Ġf ine
y ing
Ġsurp r
Ġfo ot
Ġc orn
Ġlet ter
Ġf in
Ġp ers
ĠB illy
Ġle ast
Ġfriend s
it ed
Ġbet ween
Ġsu m
Ġgre en
ĠBr own
Ġw in
im p
Ġwh om
b e
on t
ro g
sp ect
Ġco ld
o ve
Ġc ut
Ġsch ool
Ġh un
ow ers
. .
ĠR abbit
Ġind eed
Ġde c
Ġv is
Ġha ving
u ff
Ġqu iet
O n
Ġde ep
Ġc aught
ĠJ ack
ain ed
ĠI f
us ed
Ġp at
o c
Ġfr ight
Ġst ep
ate ly
Ġg ard
ic ked
Ġre f
i v
at s
Ġd aughter
ere st
Ġcon f
Ġh igh
er ing
Ġqu ick
ber t
Ġt ear
Ġs ad
ĠM other
e e
Ġb reat
ou l
s es
Ġtr ue
Ġpass ed
Ġd ou
Ġm oney
Ġl and
Ġt ired
Ġhe ld
Ġre l
Ġf a
Ġm is
Ġ. ..
as on
Ġgr ound
ward s
Ġ es
Ġstr ong
an s
ut h
Ġdre ad
Ġh on
Ġt ail
Ġal so
e g
ĠS h
ĠD ick
Ġw ild
Ġb ab
S B
ĠI s
ve red
Ġm outh
Ġt aken
Ġremem ber
Ġc ast
Ġsupp ose
ac es
Ġspe ak
Ġro ad
us h
id ed
i al
Ġwh is
Ġspo ke
Ġm et
ot e
Ġd in
Ġre ached
Ġme et
a im
Ġb ur
Ġle arn
t he
H is
Ġtrou ble
H ow
u red
Ġf our
id es
ĠN ow
Ġl ess
Ġreturn ed
ĠMar illa
ar ge
Ġle av
Ġex c
Ġt able
Ġgard en
m on
Ġint erest
ĠPr ince
air s
Ġwal ked
am ed
ad ow
D o
f ter
Ġthin king
o or
at er
as e
e ared
Ġf ly
Ġexp ect
av y
Ġfeel ing
ar p
ĠF rog
Ġro se
ent y
Ġsh ow
Ġf ool
Ġcl ose
A ll
Ġother s
Ġfor get
Ġm us
u ght
Ġbeg in
os ed
Ġc ou
ĠF r
Ġget ting
Ġpal ace
ot s
Ġgi ven
Ġp ain
Ġlo ved
Ġtre es
Ġsudden ly
Ġf re
Ġme ant
b t
Ġm ist
ĠS p
p ed
m b
ri ble
Ġdo ing
ĠS he
ab ly
us hed
Ġad m
H A
Ġag o
n ight
Ġbe ar
ious ly
as k
Ġp ie
et s
Ġh um
Ġey e
g er
le nd
Ġsh ort
al s
Ġstra ight
j oy
Ġfell ow
Ġm il
Ġcount ry
Ġqu est
Ġc re
Ġsa fe
p l
Ġt ou
Ġunderst and
Ġp ast
ĠB en
Ġstr ange
ne y
Ġn at
Ġthem selves
Ġsp ir
Ġ There
ant ly
ĠWh y
Ġm aking
Ġs oul
Ġtry ing
Ġsn ow
Ġw all
ur ch
Ġb ar
ing ly
Ġlong er
O h
Ġper haps
an ny
ct or
T ER
Ġd ri
Ġw arm
Ġpr incess
Ġre g
Ġde ath
c es
Ġse c
ent s
Ġsp lend
ul ar
ĠF armer
Ġen joy
Ġsto pped
Ġarm s
i ence
r u
Ġh ast
u al
Ġj oy
Ġbre ak
Ġth ou
Ġdin ner
Ġyou th
Ġc reat
Ġmar ried
m ed
ĠQ ue
Ġ ide
l s
n ed
Ġfoll owed
Ġfl owers
h a
on es
ĠM ead
Ġyour self
co nd
Ġs qu
Ġf lew
Ġwho se
Ġdis app
Ġear th
Ġto wn
at ing
m en
ĠM an
im e
Ġbreat h
Ġh us
Ġs li
it c
Ġro ck
Ġgu ess
u g
Ġlove ly
O ne
en e
ĠF ore
ĠS am
Ġj ump
ĠH ow
c c
Ġli ked
ĠG randfather
ĠBl ack
Ġsh arp
Ġm aid
Ġs it
Ġcomp an
Ġt em
Ġm er
Ġc ross
Ġminut e
Ġto p
ĠFore st
ĠUn cle
w here
Ġl arge
ĠQue en
Ġg en
ri e
Ġfam ily
at es
Ġse cond
Ġp ull
Ġsomet imes
Ġmar ry
Ġop ened
Mr s
Ġf ur
ĠM y
Ġc atch
pp ing
ĠPr incess
Ġin v
Ġsl ow
Ġab le
b and
Ġpr ay
Ġtear s
a ur
Ġpleas ant
Ġcar ry
A fter
s he
is on
us an
et t
Ġm aster
Ġstart ed
j ect
r ist
ation s
re s
Ġm ag
Ġdre w
Ġt ri
ain t
ĠA h
A nne
ĠN at
H er
Ġd ied
u ally
st er
Ġde al
Ġt all
Ġdo g
Ġco l
Ġcle ar
c ed
Ġ ill
ian a
Ġa ct
am es
g r
Ġo ught
Ġgold en
Ġper fect
Ġaf f
Ġl ow
Ġsh ore
ĠS ir
ĠR ose
Ġhus band
Ġl aid
el ia
ant s
he ad
l ight
Ġex cept
Ġsum mer
Ġdou bt
Ġsm ile
is f
il t
Ġno se
Ġspr ing
Ġpers on
Ġg rave
Ġsplend id
Ġkn own
b r
c er
re ady
Ġpr oud
Ġcom es
ang ed
Ġadd ed
u ed
Ġwe ek
Ġser v
ĠT o
Ġm ount
n oon
Ġk iss
Ġcar ried
Ġcorn er
el s
m or
Ġst one
Ġan x
Ġsh ip
Ġansw er
Ġf ight
Ġch urch
Ġab ove
Ġt aking
Ġp ict
ĠMar y
Ġcertain ly
Ġde p
Ġsec ret
Ġl ed
Ġlist en
H E
ud e
Ġ ed
le ep
ĠW ill
cl aim
Ġe v
Ġbes ide
Ġro ll
Ġfo l
Ġsor ry
ell ow
Ġgr ass
Ġad v
Ġbab y
Ġmo on
Ġbr own
in ted
ight foot
Ġal ready
Ġter rible
h ow
il bert
Ġ ve
Ġf at
e er
end ed
anc y
Ġwe ar
Ġhard ly
und red
Ġgr ow
Ġun c
ent ed
Ġsh ut
Ġwal k
Ġide a
re l
Ġf ro
Ġsat isf
Ġt ra
Ġh undred
Ġr iver
Ġse nd
Ġle gs
a ven
Ġh at
Ġafter noon
Ġinst ead
Ġch ance
Ġw ar
re ad
Ġf ood
i ent
Ġexp ress
Ġne igh
HA P
Ġm ine
Ġsh ook
Ġwat ched
HAP TER
Ġmus ic
Ġsu b
Ġe ither
Ġhow ever
Ġp ap
id ing
Ġas leep
Ġb urn
Ġf ield
Ġsu c
Ġ *
ĠE ng
Ġn one
ĠCh rist
Ġdra w
u se
h ouse
Ġbus iness
Ġneigh b
Ġpl ain
Ġbec ame
ĠWh ite
z z
o es
Ġf ree
Ġo cc
le y
Ġim ag
t ered
ac ed
Ġknow s
iz ed
ĠA my
ap e
Ġhur t
p ered
Ġne ck
Ġtr uth
Ġin f
Ġwhe ther
Ġnear ly
Ġfore st
Ġm iss
ar a
Ġfor th
P eter
W ith
idd le
O f
c ious
Ġf ig
Ġfright ened
s y
Ġs ix
Ġas s
Ġstand ing
d e
ĠB e
Ġpleas e
Ġt en
s on
it ion
Ġp ri
Ġs ign
itc hen
Ġ ir
Ġapp eared
C HAPTER
ĠG od
u gg
Ġwait ing
ĠSam my
Ġs imp
Ġsp ite
Ġthe e
Ġdread ful
ir t
Ġtal king
Ġf act
ĠS usan
Ġar t
Ġwonder ful
Ġmon th
c hes
ed d
Ġco ll
E very
Ġevery body
Ġno body
Ġcl im
ĠQ u
Ġe ff
Ġin ter
Ġe ag
Ġdo ctor
aur ie
m a
en g
Ġre co
Ġwin ter
T o
Ġw is
W ell
Ġd ie
ri es
e ks
in ing
Ġbo at
ott en
ĠJim my
a ul
m and
ire ct
Ġk itchen
Ġcont in
it ch
Ġqu een
o om
Ġto ne
Ġche er
i ved
Ġl ate
Ġse ver
Ġpleas ed
Ġf ing
Ġp ale
Ġha ll
claim ed
Ġrun ning
Ġdis co
Ġf illed
Ġd anger
ĠL ightfoot
Ġs ur
Ġe gg
Ġwom en
Ġfr ont
Ġexp l
Ġforg ot
Ġslow ly
le ct
Ġst ar
end y
Ġnew s
ĠGr anny
i am
Ġs ir
Ġh ot
Ġc at
M y
b ered
ic al
He re
in a
Ġminut es
are r
I I
Ġf av
anc ed
Ġp ay
Ġre ason
Ġpo l
Ġthan k
Ġwr ong
Ġy es
Ġcl ot
Ġbit ter
o g
Ġr ich
ere nt
Ġth ick
Ġsever al
ĠK im
Ġsw ord
Ġd irect
oo f
r or
Ġgen er
Ġb ott
ain s
ĠS m
ren ce
Ġbus y
ĠD iana
Ġsm o
Ġb ound
t on
z e
Ġc al
Ġbo dy
ĠM eg
r at
Ġto wards
Ġin s
ro om
Ġes c
mor row
ĠG ilbert
Ġne ither
Ġbro ken
Ġdis c
Ġset t
ĠF el
Ġear s
t o
ad dy
ĠJ erry
Ġbro ke
Ġforg otten
Ġf ish
an n
Ġab s
Ġhands ome
Ġte nder
Ġt rave
Ġs ick
Ġli ving
Ġsk y
Ġear ly
idd en
Ġlaugh ing
ut e
ĠN an
Ġdes p
Ġvis it
Ġa p
Ġgr own
ver s
Ġth rew
un e
er t
op e
Ġsurpr ise
Ġc ra
w h
Ġon es
Ġv ill
Ġsil ver
s er
Ġde v
Ġsu ff
ĠN ot
Ġfor t
Ġw and
Ġh ar
Ġm akes
or a
Ġwor th
Ġb ank
Ġstr anger
a is
Ġst op
ĠG ood
Ġang ry
Wh y
Ġm a
ĠJo e
Ġpro p
us k
Ġf ail
ĠA ll
Ġfo nd
Ġf ive
Ġsh adow
Ġwith in
ent ion
y m
Ġre c
ous in
Ġsm iled
Ġto ng
Ġbeaut y
Ġde cl
Ġbird s
Ġspir it
A l
Ġb rave
ow d
Ġch ange
ows er
ĠUn c
Ġre spect
Ġquest ion
Ġremem bered
ash ion
Ġp ath
ic es
Ġto r
ch ing
Ġch ar
Ġpleas ure
Ġl am
Ġas h
Ġcreat ure
Ġprom ised
us s
Ġcons id
Ġh ang
Ġg rand
ad ed
Ġpe ace
Ġfool ish
Ġth y
Ġdro pped
id ge
he red
ĠC l
Ġwor se
Ġwatch ing
Ġeas y
Ġfa ith
N ot
Ġp urp
Ġk ill
Ġfol ks
Ġl if
al ter
ĠL aurie
ll ow
Ġdec ided
Ġy ellow
ur s
Ġapp ro
ĠCh uck
er n
ĠD r
Ġbo x
Ġhung ry
Ġdiff erent
Ġsee ing
ĠW endy
Ġpl an
he w
Ġcast le
Ġ They
ut ter
w ell
Ġl oud
Ġsh out
Ġhead s
ĠBlack y
b led
Ġ Then
ic ed
Ġfair y
ĠAl ice
Ġin side
Ġclot hes
Ġeag er
Ġord er
Ġgentle man
an ch
Ġre ce
ĠS k
Ġar ri
Ġtal ked
Ġh arm
ĠM erry
ous ly
all ey
Ġw ise
Ġg ate
Ġsc ar
ke y
Ġfre sh
Ġl ying
Ġp ower
Ġbl ood
Ġw ide
er haps
or k
Ġg ay
Ġwhis pered
ur ing
Ġseem s
ĠE ll
Ġhe n
c ome
l o
Ġch arm
Ġm ad
Ġfor ward
ri b
ĠG irl
art ed
Ġr ain
a wn
ic ity
ous and
Ġleav es
Ġn est
ac he
Ġr ing
Ġlearn ed
or th
ce ed
ĠS c
ĠB ab
Ġst ri
Ġhur ry
i ally
z en
ĠJohn ny
Ġli ps
Ġfl oor
Ġstr uck
ou n
Ġpre p
Ġl eng
Ġsh owed
th ough
Ġpo ck
Ġbec ome
L SB
Ġm iddle
Ġapp ear
it ing
ch ief
Ġpo int
R SB
i pp
Ġhe avy
ag ed
Ġlist ened
in es
itt en
ag es
S t
d om
anc es
Ġwait ed
ĠMead ows
m as
ar r
ĠS o
Ġhapp en
Ġpro per
Ġquick ly
u dd
Ġth ousand
Ġsa ve
ĠL y
Ġw ished
ĠR o
Ġex t
Ġb ask
on y
Ġqu ar
ap tain
Ġbrother s
i o
Ġgi ant
J ust
ed dy
ut tered
ĠP h
Ġman ner
Ġte a
Ġtw enty
B y
f ast
Ġsa nd
r ic
Ġw edd
Ġk illed
Ġleng th
Ġsp ot
Ġh ide
ĠSk unk
Ġcle an
u zz
Ġth ird
Ġaw ful
Ġprom ise
Ġg az
Ġit self
Ġe ld
ri age
itt ed
Ġco at
ĠB ha
ard s
Ġsoft ly
Ġd are
Ġposs ible
in y
Ġst ick
ĠF air
Ġstep s
ĠL ady
Ġany one
pt y
Ġbook s
Ġl ater
Ġcry ing
b ing
Ġus ual
Ġle ad
Ġm ur
im ent
ĠSt ory
Ġ X
Ġout side
Ġhun ter
a x
as ed
Ġli ves
li ke
B e
a f
Ġdr ink
Ġhur ried
Ġbegin ning
Ġg ro
Ġal though
Ġpres ent
Ġsurpr ised
nd e
Ġr ub
e es
Ġbe y
ĠCh arl
Y es
Ġj our
as hed
ep ing
Ġsor row
Ġdis m
Ġlook s
ĠC ar
Ġle an
ĠAl an
Ġfig ure
Ġcl oud
Ġbey ond
ess ed
Ġpart y
Ġa st
Ġbre ad
Ġwo nd
k es
is hing
Ġso ld
Ġdo ll
Ġli e
ĠP ool
Ġsm art
Ġshould er
ĠBha er
a ith
ĠA n
p le
ist ed
Ġex act
Ġgr ay
Ġd ut
Ġhour s
Ġsa il
Ġme re
Ġbel ow
Ġexpect ed
Ġp air
id ent
Ġsa l
app y
Ġtong ue
ĠB owser
Ġsil ence
Ġwedd ing
Ġse ven
Ġch anged
Ġany body
l ish
ig hed
Ġpart ic
Ġmin ister
Ġpie ce
Ġperfect ly
Ġtr ust
Ġbe at
ĠI n
Ġleav ing
J o
ĠP l
Ġvill age
Ġp en
Ġear n
Ġhor ses
S ome
ic ally
Ġqu eer
Ġd ust
- -
l ic
Ġin n
iz e
ĠSm iling
Ġt ast
ap ed
h ood
ĠP aul
sh ip
ere r
aw s
Ġfin ished
g ing
Ġo h
Ġp ity
Ġpict ure
Ġf ancy
Ġwr ite
Ġcour t
Ġin c
ĠJ ay
Ġmean s
Ġfoll ow
Ġent ered
o ver
is k
al th
Ġmag ic
ĠTh is
ĠDan ny
ĠJ ane
ou red
Ġbe ast
Ġse lf
a pped
Ġm id
ĠA r
ĠA le
Ġdel ic
i est
Ġc ow
is ing
Ġcle ver
l er
ĠR illa
S u
Ġs ong
Ġjour ney
or ge
av es
Ġsupp er
Ġwe l
ĠP o
Ġanx ious
ĠChrist mas
ad ows
ĠW hen
ĠO li
Ġstre ng
Ġs ense
Ġl one
ra ge
Ġo pp
oo se
ĠC ome
Ġb all
it ude
ve l
Ġmo ve
ret ched
Ġv an
Ġturn ing
sh ine
Ġes p
Ġbreak fast
Ġpull ed
Ġed ge
Ġpap er
oo king
Ġres ol
ĠC orn
ĠT HE
Ġtre as
Ġun cle
Ġar r
ĠE m
Ġlad ies
Ġcompan y
Ġc ir
est ed
ĠL et
Ġu g
r on
s et
Ġs igh
Ġb ow
ĠM att
ĠB ly
Ġgo es
und ay
i ant
Ġe le
Ġsu it
Ġst ro
if ic
ĠD e
Ġexact ly
u dy
Ġho llow
Ġhun ting
Ġso le
Ġsh r
ĠF ather
b les
c ked
Ġsm iling
ĠLy nde
Ġpartic ular
ir st
anc ing
Ġcontin ued
Ġl ot
ĠW alter
att le
Ġbask et
Ġb ene
Ġbr ide
Ġcomp l
Ġbro ad
Ġm ess
ĠS unday
Ġtell ing
Ġlone ly
Ġb orn
st airs
ce ly
w hat
Ġse ar
Ġgl ass
Ġesp ec
O U
Ġb ir
ĠG l
Ġbel ong
ri g
Ġlike ly
Ġsp read
ĠWh o
Ġplay ed
m other
Ġf arm
Ġd ry
Ġad vent
Ġdress ed
Ġs ens
Ġf aces
Ġc ity
Ġfor m
att ered
Ġsuc cess
Ġbeg ged
Ġc e
ĠM aster
Ġch air
if ied
ĠJ ill
Ġco nd
Ġdisapp o
Ġw icked
Ġp h
are nt
Ġpock et
Ġ U
Ġw ore
Ġw ings
ĠC aptain
Ġmil k
er able
ur se
ment s
Ġdra g
Ġob ser
Ġcal m
Ġm ir
or ies
Ġp un
Ġcap tain
Ġsc r
Ġte ac
a ff
c ul
i ves
ĠTom my
ĠBly the
ĠM ay
em i
Ġegg s
Ġg un
Ġfl ower
Ġquiet ly
ar ling
Ġr om
Ġcare fully
Ġhon est
Ġtou ched
ĠQu ack
Ġsa ke
Ġco vered
Ġm erry
ĠB ree
Ġbur st
ĠCorn elia
L et
r om
r oo
Ġc ase
Ġl uck
Ġe ight
ill s
Ġfly ing
Ġhum an
Ġstreng th
M iss
Ġf it
Ġst udy
am ing
Ġc ousin
Ġbe ll
ĠP e
o red
ĠL au
Ġsli pped
Ġis land
ĠP addy
Ġthought s
Ġch o
Ġr u
oy ote
Ġa i
Ġne arer
ĠC oyote
Ġacc ount
Ġmil es
ais y
p e
Ġr ap
Ġsp ent
Ġal ive
ive ly
Ġsun shine
Ġnat ur
ache l
ĠG e
Ġbl ow
Ġfall en
Ġfun ny
m n
en ing
Ġr id
ĠO f
z es
Ġfe ather
Ġaf fect
Ġwal king
Ġsing ing
Ġlif ted
ab les
Ġgr owing
ĠUn a
Ġg ift
Ġu ne
Ġsh ining
Ġcr owd
ĠNat ure
Ġhe aven
ĠP ro
Ġknow ing
e x
Ġcomfort able
rie f
u it
u nder
Ġg all
Ġwh ist
Ġno dd
Ġv ain
ate ful
iet y
Ġem pty
Ġs ighed
ĠI nd
ĠW here
Ġro de
Ġwr ote
Ġeas ily
c y
e ch
f orm
u ce
Ġp a
ĠA d
Ġspr ang
Ġash amed
ĠM ink
ch ard
ĠB ig
ort ed
Ġdelight ed
Ġexpress ion
I N
Ġf ashion
Ġp icked
ĠD av
Ġstre et
p ing
w ing
Ġs ym
ar ing
Ġan im
Ġletter s
Ġjump ed
ĠFair y
w ise
Ġ 1
Ġb ade
Ġtr ain
Ġb ag
Ġsc re
Ġho le
Ġdist ance
ĠEng lish
Ġdisco vered
C h
ter n
ĠG reat
ĠH o
Ġir on
ĠFel icity
ay s
Ġheart s
ĠFr ank
Ġwond ered
Ġug ly
Ġgi ving
Ġespec ially
E S
ĠM ouse
ound ed
Ġbo ard
Ġpo nd
Ġun h
Ġun less
g l
u es
Ġlo se
Ġbott om
ĠA s
Ġway s
Ġsw im
Ġdiff ic
Ġarri ved
N e
Ġjo lly
Ġ ver
Ġre ach
ĠB eth
ant ed
are st
re ed
ad d
ĠMar ch
Ġsle pt
Ġdro ve
Ġocc as
Ġsole mn
o ved
u ge
Ġth us
Ġh idden
il i
Ġcr u
Ġfa ult
Ġp ort
ic king
ĠS ara
Ġno ise
C ome
ay ed
et ty
ĠF aith
Ġen em
Ġbelie ved
Ġc up
Ġd ance
le a
Ġpr ide
Ġsil ent
Ġcre pt
Ġc ook
an et
Ġr ough
ĠC ec
Ġte eth
Ġinst ant
Ġroll ed
c ri
umb led
Ġdri ve
Ġt ur
Ġb are
Ġm ark
Ġnot ice
ĠP at
Ġhapp iness
v ia
it ies
ac ked
Ġr oof
ĠR iver
t e
ar ry
Ġst ore
Ġwe ak
ce ll
Ġfur ther
b s
r ing
at hered
Ġc or
Ġt aught
Ġa ge
Ġan n
ie w
eter m
P erhaps
a ld
Ġf aint
Ġsing le
oc ked
Ġmaid en
Ġdecl ared
Ġast on
um ber
ĠO w
Ġdesp air
ĠN ew
Ġfl o
Ġdes er
Ġche st
Ġexc ited
y al
Ġa unt
Ġth ro
Ġp ar
Ġsu gg
ĠO ne
Ġtou ch
ru pt
E ven
Ġc ro
Ġd eterm
ir ty
Ġat e
Ġex per
Ġmo ved
Ġbu ild
Ġpie ces
Ġsett led
Ġdut y
A n
ĠD emi
Ġpl aces
Ġunderst ood
Ġlam a
Ġsh ot
Ġplay ing
Ġsk in
Ġwood s
ĠWill iam
j o
Ġst ate
Ġwor ked
Ġshould ers
Ġdream s
b l
as ped
Ġcon cer
Ġmount ain
ĠB ob
Ġwel come
u ly
Ġl aughter
Ġpe ep
ĠHe re
Ġtem per
Ġsym p
Ġr a
ĠW ind
Ġex claimed
ust r
Ġim m
Ġtre mb
Ġearn est
ĠA v
Ġde f
Ġwr itten
Ġt ale
om ed
id ly
ĠD avy
Ġyour s
Ġpr ot
Ġcom mand
ĠMatt hew
Ġc ool
Ġwor ry
Ġfl ung
ress ed
Ġgu est
g li
m ing
Ġp ink
ĠM a
ow gli
ĠM o
ĠF or
Ġro b
Ġpro v
Ġrem ained
Ġkind ly
Ġcou rage
I s
Ġst ir
Ġpl enty
Ġfo x
Ġhelp ed
Ġimp oss
Ġfield s
Ġmonth s
b ow
Ġp ick
ĠB ell
our s
Ġevery one
Ġgl ance
Ġcr own
Ġapp le
Ġdes ire
Ġche eks
Ġwonder ing
ey ed
Ġsister s
Ġme m
Ġste al
Ġhold ing
Ġeff ect
Ġf ill
Ġy o
Ġan t
Ġbl ind
ĠWhite foot
ĠAle c
l ie
Ġt ied
Ġf ier
ar row
Ġnot iced
el ve
Ġsub ject
Ġwhat ever
av ing
Ġrem ark
Ġfair ies
Ġhang ing
Ġo dd
ll ed
Ġp in
es lie
ĠM in
Ġtr ick
Ġgr in
Ġfir m
Ġin qu
em pt
Ġput ting
ĠMead ow
O ld
e al
u ct
Ġl ine
am ma
Ġsh one
ĠS ah
Ġpro b
i pped
Ġimposs ible
L E
Ġf ix
Ġso l
Ġgre y
gg ed
Ġg ame
Ġme l
pp er
ĠW est
Ġdis p
ri er
ĠF l
Ġsimp ly
ĠBree zes
ĠGe orge
Ġc ake
Ġp ot
ter s
ĠO n
Ġfoll owing
med i
Ġord ered
Ġd ared
Ġch uck
ĠCharl ott
j est
n a
Ġj ud
Ġac qu
ip e
Ġsoon er
oot y
act ion
g ar
in ation
Ġp ill
Ġp aid
Ġoff ered
Ġnat ure
roo ge
on lea
Ġcur ious
Ġrece ived
ve re
Ġst ories
am ber
Ġpr ison
Ġpro f
Ġsatisf ied
Ġw itch
ĠM ered
ep t
Ġv alley
Ġsome how
Ġmu d
ect ed
ĠMered ith
p it
il s
Ġfo ld
Ġadm ir
Ġbene ath
I S
S omet
i os
w e
Ġh unt
Ġbo ld
Ġkiss ed
I T
n ow
Ġm ort
Ġsp ell
Ġwant s
Ġbr idge
Ġvo ices
Ġsil k
n ers
t ter
ot ion
Ġfe ast
Ġtw elve
Ġstre am
Ġh orn
Ġtw ice
Ġeat ing
Ġw et
Ġb ent
Ġu nd
Ġr ust
Ġsp l
ĠE d
Ġpres ently
Ġdeterm ined
_ _
y s
Ġg athered
ut s
Ġsh oes
Ġbr ook
ĠL e
Ġfing er
c he
Ġh iding
Ġst orm
Ġshe ep
Ġkn ight
ĠL ord
Ġro ses
Ġob ject
Ġst ones
Ġr ushed
Ġen g
Ġimp ort
ĠEng land
M ar
t erer
Ġc ott
Ġsee k
Ġte ach
Ġcou n
Ġspir its
A N
N ever
a ily
i ke
Ġg ently
ump h
Ġm or
ĠP oss
ĠG er
g n
o e
Ġs ang
Ġh id
Ġf art
hat terer
m aid
Ġwe eks
Ġkn ees
Ġking dom
ĠAv onlea
Ġst ared
Ġwe ather
end ing
res ently
Ġfing ers
Ġnodd ed
Ġt reat
Ġg ra
Ġso b
Ġsome what
Ġco ver
Ġgu ard
Ġesc ape
d er
z y
Ġd uring
ĠB ear
Ġinn oc
a ked
ĠD aisy
ĠTh ank
ĠPoss um
Ġm ill
Ġall owed
ĠS qu
us hing
Ġag reed
Ġcom mon
Ġeat en
Ġinterest ing
g ain
id ence
ic s
ck on
Ġexc ite
g an
st r
Ġso c
Ġop in
Ġdrag on
Ġoccas ion
P resently
h ost
Ġh ate
Ġm ed
ĠM usk
Ġdo zen
ĠJ em
Ġam az
Ġgl oom
ĠJo s
Ġkeep ing
Ġhop ed
Ġto day
Ġbe w
Ġsh adows
ĠD id
Ġjo ke
Ġpurp ose
Ġcru el
Ġw on
Ġdo gs
Ġbut ter
Ġor chard
ak er
Ġref lect
Ġmis chief
c king
Ġy ard
ust er
ant ic
Ġpre cious
Ġclim bed
Ġdirect ion
medi ately
i el
Ġp or
ĠH ooty
Ġfl at
oss om
Ġquest ions
Ġto ward
Ġam use
Ġrep e
Ġenjoy ed
b ell
o le
Ġsp ark
Ġhill s
Ġmur m
Ġc ent
Ġd am
id ently
ĠR ob
Ġdark ness
ĠSah ib
ĠA b
ĠJ ames
ĠMusk rat
Ġre jo
Ġsh are
ĠS e
ĠJ anet
ĠT r
less ly
Ġcont ent
Ġbu y
Ġadv ice
Ġshout ed
rib ly
i ently
Ġsu sp
ĠR achel
Ġpo st
Ġacc om
Ġdelight ful
Ġposs ess
Ġwhis per
jest y
i ers
m s
Ġ id
Ġha bit
el ess
Ġthr ow
Ġsc ene
Ġbre ast
Ġent ire
ib ly
Ġimag ine
Ġtast e
i k
Ġt iny
Ġp et
ĠM ah
if ty
ĠG o
Ġwind ows
Ġforg ive
Ġmeet ing
Ġcheer ful
Ġm ention
on n
E N
f l
i ol
Ġst up
Ġcl osed
Ġspo ken
ĠGl en
W here
Ġsh ame
Ġfav or
in ct
Ġto w
Ġas ide
ĠM ac
Ġco st
Ġsort s
Ġev il
il ver
Ġstay ed
Ġwall s
Ġexcite ment
R eddy
Ġt ight
Ġwor st
Ġbl ess
Ġfart her
Ġgr ace
Ġhon our
Ġthro at
Ġs ac
ĠB etty
ĠN ever
Ġsm ell
Ġsw ift
Ġmar riage
Ġhar b
ĠPh il
s c
Ġsh ape
Ġneed ed
Ġbu ilt
Ġprob ably
Ġs ons
Ġh uge
Ġp ra
Ġtem pt
Ġd im
Ġd ancing
Ġde mand
Ġspe ech
Ġpol ite
to gether
a ver
w o
Ġst ud
itt y
c ol
k er
Ġwe ary
Ġsa ved
Ġso ber
ock s
Ġserv ice
Ġunc om
er v
Ġst retched
Ġr ag
ous es
ceed ed
e ge
is es
ur d
ound s
Ġpass ion
How ever
pl ace
Ġp arent
ce nd
Ġsymp ath
a el
in king
Ġl ord
Ġne at
ĠA re
Ġag ree
Ġtr ot
ish ment
Ġfeel ings
Ġsear ch
ĠDav id
Y et
he t
ĠS un
us ion
Ġj ack
Ġthere fore
ĠL eslie
Ġv iol
Ġpo inted
Ġcom m
Ġgr ateful
Ġteac her
Ġsu spect
el en
Ġstr ugg
Ġac cept
Ġlad s
Ġste pped
Ġdisapp eared
Ġchar ac
Ġst ars
Ġex am
are t
Ġcall ing
Ġrock s
Ġnot e
Ġv al
Ġrep ly
Ġbes ides
F rom
O O
y l
Ġd anced
Ġst uff
Ġch amber
Ġsome body
Ġcon v
Ġsun set
Ġspe aking
ĠTo ad
Ġl amp
as hing
Ġher o
Ġst ern
Ġsp ect
ick ly
Ġen c
ĠCec ily
Ġd est
ĠM owgli
ip m
Ġfell ows
ĠV ery
ex claimed
Ġw ine
an y
Ġre ward
ĠA t
Ġpro d
Ġcont r
Ġeff ort
Ġfort une
d en
p r
Ġl est
ĠC row
Ġim mediately
ĠCh ipm
ung le
Ġang er
Ġtri umph
Ġopin ion
Ġf et
ri ly
ĠO tter
ĠBr ook
Ġmere ly
ĠChipm unk
Ġ ice
Ġh ated
ing ing
Ġd ull
Ġr ide
Ġbo ots
ĠH ave
Ġfind ing
Ġfriend ly
Ġdro p
Ġpa used
f ield
Ġ er
Ġn urse
Ġp ig
Ġp uzz
ĠI ll
Ġro yal
Ġpo s
Ġc and
Ġp arl
Ġse at
ss ed
Ġsw all
Ġcreat ures
Ġfav our
ĠSc rooge
A unt
g aret
Ġf al
Ġl it
Ġst om
Ġst iff
Ġme adow
ĠC hatterer
Ġwor n
Ġtw ink
Ġcare ful
Ġread ing
Ġsimp le
Ġvan ished
Ġunh appy
l ooking
es ides
Ġtr uly
Ġsatisf action
wh ile
Ġf anc
own ed
led ge
Ġmem ory
e rence
ll ing
ot ed
ch ant
Ġsl ight
ĠTh orn
Ġmist ake
Ġpri v
Ġpri est
Ġprep ared
Ġstom ach
h am
Ġd awn
Ġp it
st ep
un ch
Ġsp are
Ġthink s
Ġbeh old
Ġcur tain
Ġbur ied
A R
Ġsto le
Ġsound ed
Ġtreas ure
f a
Ġ utter
Ġf are
ĠF our
Ġv iew
Ġany where
Ġrem ain
Ġlisten ing
Ġn ames
ir rel
Ġfr uit
Ġbus hes
ustr ation
t ime
re sh
Ġhe alth
gh ing
ĠC r
Ġro sy
Ġcl os
e an
w ood
he ld
Ġl ane
Ġg le
Ġli kes
oun ced
L L
Ġli on
Ġlo ving
g y
l in
y r
en cer
un ted
ĠD ear
ĠG old
Ġman age
Ġh ut
Ġm our
is c
am s
il ity
ĠC an
Ġv ar
um e
Ġsome where
ren ch
Ġpret t
Ġend ed
Ġem b
Ġeld er
Ġcir c
Ġstup id
i ving
Ġs ides
ich ael
Ġle g
ĠR ich
Ġpr act
Ġeager ly
Ġb ull
Ġd w
Ġal together
Ġv ict
Ġold er
Ġimp at
b ub
Ġc her
Ġne cess
Ġafter wards
uc ed
Ġev idently
y e
Ġsp end
ĠC elia
Ġpres ence
ios ity
Ġb or
Ġse ized
ack s
ĠR os
Ġbl oom
Ġmo d
On ly
Ġpat ience
Ġreg ard
Ġcharm ing
ĠLau ghing
Ġh ig
Ġh ol
Ġn arrow
Ġp ear
Ġas king
Ġst uck
Ġsh y
ro ll
Ġsure ly
Ġdream ed
Ġsmo oth
Ġbir th
Ġnatur al
Ġaffect ion
ĠIll ustration
Ġw arn
ed s
Ġm uttered
en ces
Ġsu l
Ġwhen ever
ĠH ound
Ġcon cl
Ġhear ing
in ary
Ġl aw
Ġg ar
Ġher s
ĠL aw
op h
Ġcon vers
Ġoff er
ons ense
Ġdist ur
Ġmist ress
Ġpict ures
anch o
t ree
he arted
Ġb attle
ĠM ist
and ed
Ġparent s
D id
Ġw ag
Ġf ate
Ġg ather
ter day
Ġsh oot
Ġob l
Ġcompan ion
Ġbitter ly
P r
t le
The se
us hes
ĠJ ungle
Ġwa ist
by e
Ġdiffic ult
Ġn aught
Ġbe held
ut ion
ac le
ĠC oon
Ġthr own
Ġhop ing
Ġb ones
om es
ri ar
ard on
um n
ĠH er
Ġbl ossom
Ġaw ake
Ġord ers
Ġfaith ful
Jo hn
ĠOli ver
Ġch oose
ĠSp encer
Ġconsid ered
Ġinnoc ent
O R
al ed
ĠW ood
th a
ĠD arling
Ġwor king
ĠR e
Ġbeg un
ud ed
Ġreco gn
Ġobser ved
B esides
f er
k n
as p
Ġal arm
ĠG rand
Ġgr im
Ġcl ass
Ġinst antly
Ġappear ance
c her
Ġs illy
Ġd ign
Ġre sp
ind a
Ġle ap
ip s
per or
app ing
n ie
Ġto night
Ġc ause
Ġp ant
Ġe qu
Ġtrou bled
On ce
Ġhon or
Ġinterest ed
Ġw est
Ġb lew
ou p
Ġth under
Ġex cell
Ġent er
Ġgentle men
Ġw it
ell ed
ie ce
Ġv ent
ĠH arr
Ġcon ce
ose ph
Ġcur iosity
Wh ile
Ġdraw ing
Ġb arn
al f
Ġcar p
Ġdra wn
Ġfore head
Ġfall ing
Wh o
Ne xt
Ġd usk
en ess
om as
ul ous
Ġch im
Ġtr ans
a it
l ves
Ġd ying
Ġst out
Ġbr anc
Ġrem ind
Ġatt end
ĠJim s
Ġmoon light
Ġneighb ors
Ġgener al
v al
Ġd iv
ar f
Ġp ub
ĠM ad
Ġpl aced
Ġlong ed
Ġfin ally
Ġreg ret
O W
R illa
Ġb ore
ld om
ĠN orth
Ġtre m
Ġuse ful
Ġmis erable
Ġclim b
Ġobl ig
Ġt ask
ro ad
Ġch ief
um s
Ġind ign
Ġrel ief
Ġless ons
ĠRich ard
Ġchim ney
ir ley
Ġsh ake
ĠJ ust
ĠF red
ep hen
Ġen v
Ġpat ient
Ġserv ant
Ġfail ed
Ġenem y
Ġn ine
ĠDan iel
Ġexpl ained
Ġpurp le
Ġw ra
Ġgr at
Ġyoung est
Ġca used
Ġhast ily
Ġap art
Ġopp os
Ġcott age
n at
Ġb and
Ġc ust
Ġp op
ĠM or
Ġse ldom
Ġkn ife
ĠF rench
Ġthan ked
ian s
Ġspe ed
Ġmatter s
Ġact ually
Ġcoll ege
ĠPat ty
it ter
Ġl ower
om ing
om an
Ġre qu
ĠM ichael
Ġlong ing
ĠMar garet
uc ked
a i
y ard
Ġc ared
as c
Ġdes per
Ġadvent ures
Ġsusp ic
Ġentire ly
L ittle
r ight
Ġf ut
Ġp ool
ri ped
ain ted
us ing
Ġfe ed
Ġget s
Ġgre et
Ġche ek
int s
Ġstra w
Ġsad ly
Ġmag n
Ġd en
Ġshe ll
ur y
Ġpr in
Ġtr amp
Ġpass ing
Ġsleep ing
Ġbab ies
Ġreg ular
P oor
Ġs in
Ġn umber
on el
Ġgo ss
Ġlo ck
ĠMar sh
Ġdiff erence
Ġgro an
Ġcharac ter
A S
i or
Ġc ab
Ġl ab
Ġp ir
Ġal oud
ĠH ook
Ġwo ke
Ġref used
Ġpray er
Ġserv ants
Ġyes terday
Ġbranc hes
Ġf ifty
it ation
Ġm ain
Ġwas te
ĠB uster
ĠE ric
Ġrep ro
ĠY our
eth od
Ġguess ed
Ġsmo ke
ĠEll en
Ġh ouses
Ġd et
Ġr ib
Ġch ap
Ġcr im
Ġacc ord
Ġatt empt
Ġsad d
ĠSh irley
io let
Ġguest s
ĠGer man
Ġa v
Ġb ought
ou ra
Ġc ats
Ġmy ster
Ġthan ks
Ġgreat est
Ġmight y
Ġbig ger
Ġunc ons
Ġra ised
Ġfix ed
ĠJos ie
Ġb ark
Ġp ure
Ġr ow
Ġr age
Ġsc ra
Ġke en
Ġsupp osed
Ġgrave ly
i us
r id
Ġm at
Ġl az
Ġsh aking
Ġman aged
Ġbl ame
Ġwo lf
ĠK il
Ġsc orn
Ġcarry ing
Ġdisappo inted
Ġimport ant
ĠSqu irrel
Ġa ut
Ġp urs
ĠP ath
int ment
Ġtrou bles
Ġplain ly
b ook
l a
Ġf ence
Ġc ord
Ġtr unk
Ġun f
Ġour selves
ift een
Ġsharp ly
Ġburn ing
K im
T om
r ay
Ġg host
Ġst airs
Ġwe pt
qu e
Ġfe ared
Ġun us
ive red
Ġpro ved
Ġbring ing
Ġburn ed
Be fore
Ġcloud s
Ġfeather s
T HE
f all
Ġw id
ac y
ac ted
Ġha m
if ully
Ġup stairs
ĠW o
Ġpo et
Ġkind ness
Ġless on
Ġconvers ation
s om
Ġw ake
Ġc oo
Ġc amp
or se
et y
Ġst ation
il ight
ĠAnd rew
Ġmean ing
umb ling
ann ah
Ġlean ed
or ld
Ġre ve
Ġme al
ĠP er
leas e
Ġcar riage
men y
Ġaff airs
iam ond
G o
O N
Ġl ake
al k
il es
Ġsu per
Ġbr isk
li z
Ġwr iting
ĠSp ir
Ġwand ered
Ġrepe ated
E D
Ġf urn
Ġhe at
Ġe ast
Ġkn ocked
Ġsome one
Ġsc old
Ġheart ily
ĠFel ix
ĠX X
Ġimm ense
Ġa ud
Ġb und
Ġd iamond
ĠI ng
Ġre ckon
ĠO F
Ġnight s
Ġfare well
Ġexcell ent
i ot
Ġb ra
Ġp ardon
ac ious
Ġwor ried
Ġcl o
Ġhop es
let e
rig io
Somet imes
A h
g u
m it
Ġb ough
Ġhe els
ac hing
Ġch ick
Ġj ew
Ġwill ing
Ġl ang
ar b
all ed
Ġtw ilight
em ent
ĠK itty
ĠTh omas
ĠRo ger
b ling
g re
o ll
Ġhe av
Ġl atter
Ġper form
Ġter ror
Ġfam ous
Ġaff air
Ġw aves
Ġas p
ur red
Ġan c
Ġne g
ell e
um per
ĠN or
Ġoppos ite
J im
g es
Ġw its
Ġm amma
Ġwas h
oo p
Ġse ll
Ġli es
ell y
ĠT eddy
Ġle af
Ġus ually
Ġsound s
Ġsafe ly
Ġcol our
W as
Ġf is
ar ked
Ġfor b
ĠOli via
Ġfut ure
Ġcrim son
W ill
Ġf ishing
Ġbr ill
Ġhor ror
Ġopen ing
Ġcross ed
Ġbeast s
Ġtremb ling
f or
Ġb ree
Ġg rief
Ġso fa
Ġall ow
ro d
ĠP rigio
ĠJ oseph
Ġcomp lete
Ġlive ly
Ġatt ention
Ġsqu are
Ġth reat
Ġr ace
ĠL ong
Ġun w
ang ers
Ġdoor way
dden ly
Ġfore ver
Ġdread fully
Ġneighb our
Ġinter rupt
Ġstar ing
Ġsugg ested
Ġpeep ed
ker chief
T H
m ary
Ġto morrow
Ġso re
Ġme as
ul f
Ġbr anch
Ġdoor s
Ġbus h
No body
Ġhast e
Ġsur r
Ġbott le
Ġuncom fort
ĠThorn y
Ġcust om
r ance
it ated
Ġd well
Ġup per
ess or
Ġlo ss
Ġknow ledge
ĠN ay
Ġcons c
Ġmiss ed
Ġexpl ain
Ġconsid er
Ġext ra
ĠMah bub
R E
en n
Ġmy st
ĠG ables
and a
ĠL ook
Ġevery where
Ġsw ept
Ġhor rible
Ġspe c
Ġresol ved
Ġchuck led
Ġpuzz led
Ġnecess ary
b ers
c il
cl ock
ĠIs ab
Ġinv ited
Ġscar cely
ork y
L D
w ed
re p
Ġl ap
Ġp ile
ver n
Ġhis t
ro se
ĠP orky
ĠO r
ort un
Ġconf ess
Ġve il
i xt
Ġt akes
Ġb an
is a
or ing
Ġg own
ad es
Ġr ul
um ble
Ġlo g
Ġbl essed
ag ue
ĠSt ephen
ĠSt riped
Ġanx iously
Ġtra il
Ġw ist
Ġp ushed
ĠG ard
Ġun p
II I
Ġeld est
Ġdelic ate
ĠOw l
l ter
Ġt ick
Ġd ig
Ġd uck
Ġbe ard
al ity
el ine
Ġle ar
ĠH ans
ict ion
Ġdist ant
Ġbad ly
Su ch
er al
as y
Ġfor mer
ĠB ess
Ġbl ank
Ġgreat er
Ġapp les
Ġimp ro
Ġexper ience
Ġb owed
id s
Ġst ead
ĠA m
ist s
Ġpre c
Ġgreat ly
Ġke y
Ġyoung er
Ġprom pt
Ġmid st
Su ddenly
Ġh it
Ġb rief
Ġc ows
Ġn uts
oo ped
Ġr ise
ĠH elen
Ġlo ver
em ber
let on
Ġdisco ver
Ġgoss ip
k y
p atch
am m
Ġsp in
ĠT ed
ĠH annah
Ġlo cked
Ġsc attered
os pit
ail ed
Ġroom s
Ġnor th
Ġce ased
IN G
d s
Ġ est
Ġh ither
Ġf ifteen
ĠP ast
ĠN e
Ġfl ock
Ġsli pp
Ġinf orm
re r
it ary
The ir
Ġcon st
Ġset ting
Ġpret ended
Ġfair ly
ult an
Ġve l
St ill
Ġfier ce
ĠHarr ison
Ġmagn ific
H ave
re ct
Ġh oney
Ġr ising
Ġsa iled
ch ie
Ġne arest
ĠS ultan
ĠB arry
ĠD uck
Ġbl az
Ġsw am
Ġimp ress
ĠV alley
Ġjo in
ili ar
Ġlang u
l u
y n
he st
Ġmon key
Ġdri ven
ĠBob by
k in
o f
r um
Ġp ine
ac ing
Ġst able
ĠB y
ĠP erhaps
Ġbo som
Ġhand kerchief
Ġhapp ily
Ġjo ined
Ġrub bed
Ġrom antic
Mar illa
A ny
S ee
d em
Ġb en
Ġn onsense
ĠB riar
ĠT ur
Ġtr if
Ġthr ust
bo ard
Ġdr ank
Ġsympath y
i able
j or
u ch
Ġin cl
Ġman ners
Ġcons cious
Ġhun ted
Ġfol k
Ġoblig ed
ĠKil meny
B l
S h
h old
u ous
Ġn urs
Ġg rie
ĠW orld
Ġgl anced
ount ain
Ġhard er
In st
Ġser ved
Ġter ribly
Ġenjoy ing
Ġhast ened
Ġfight ing
Ġsold iers
Ġaston ished
Ġfet ch
Ġpub lic
Ġaut umn
f ashion
Ġe vent
se us
Ġsh a
Ġno ble
ail s
Ġcare less
Ġdes cri
ĠIs land
Ġcra w
Ġanim al
Ġvel ve
Ġl im
Ġbr id
Ġmo ving
Ġbar gain
Ġwar ning
Ġwis dom
Ġfold ed
Ġbew ild
p an
Ġa head
in ting
Ġse ason
un n
ĠS w
ust ed
ep er
ĠH u
ect ion
Ġrem arked
Ġret orted
fort un
ĠDo ctor
Ġglad ly
Ġstart led
ĠGr ay
Ġmount ed
Ġfro st
Ġhorn s
Ġclo ak
Ġh ay
Ġb er
Ġwas hed
Ġe ch
Ġfor ced
un ning
ĠT ell
Ġpro spect
Ġcou ple
HA T
ute ly
Ġtow er
o ke
ell a
Ġpl ans
Ġfe ver
are s
Ġam used
aught ers
Ġsn iff
ĠThe od
het ic
i ar
Ġm ouse
Ġc ave
is m
Ġbe ach
Ġfr ag
ĠC ol
Ġpre vent
ĠE liz
Ġfam iliar
Not hing
Ġlean ing
Ġnaught y
Ġrib b
k ins
Ġs outh
Ġb al
Ġhe s
an sw
Ġg randfather
Ġha re
Ġre v
Ġse vere
Ġsh iver
ĠS ilver
ĠS oph
um ed
Ġfriend ship
Ġdream ing
Ġeas ier
Ġthank ful
Ġdoll ars
Ġmyster ious
I nd
Ġf ought
Ġf aded
Ġm ap
Ġfor ty
Ġmo ss
ang ing
atter ing
ec ause
ett e
Ġprop osed
Ġgrin ned
Ġ ign
Ġth read
es h
ĠM ill
ĠS ally
Ġman se
Ġsett le
Ġsolemn ly
Ġdemand ed
c i
d o
Ġh ospit
Ġl ing
ad ing
ĠI r
Ġde w
li est
Ġpro ve
Ġwhist le
p her
u ke
Ġt umbled
Ġp ack
Ġse vent
ĠA N
Ġkn ee
ĠD ou
Ġgl or
Ġbre aking
Ġser ious
Ġmir ror
Ġfanc ied
Ġlaz y
if ted
ce ived
Ġde er
op s
ĠH ills
Ġun b
Ġun l
Ġcl oth
Ġbel oved
Ġtal es
Ġbelong ed
gl as
Ġadmir ation
Ġmyst ery
c on
Ġs ank
Ġm ild
and s
Ġloo se
Ġco ff
Th us
dem anded
Ġs ly
Ġs ne
at ur
ll a
Ġd ish
Ġd aughters
Ġl ar
as ing
om est
Ġst ol
ĠM ir
ure ly
Ġcl ock
Ġfl ed
Ġmoment s
Ġdist r
Ġsur f
Ġadvent ure
Ġcalm ly
Ġconcl uded
ĠPast ure
s ing
Ġn erv
Ġdis hes
Every body
Ġtor n
Ġquar rel
Ġswift ly
W ould
re nt
Ġm ood
Ġm ass
at ive
Ġd aily
Ġth irty
ad s
Ġme ek
Ġwhe el
Ġpr ice
Ġpe cul
Ġhear th
Ġadm itted
ug ust
Ġproud ly
ĠBe aver
Ġsuff er
Ġsuff ered
Ġdelic ious
Ġpecul iar
in ally
Ġle nd
ĠL ou
ĠL uc
Ġany way
ign ed
Ġem peror
Ġposs essed
Ġreco ll
Ġcir cle
Ġrap t
Ġfirm ly
D ick
Y our
r if
Ġw ound
Ġhe ed
es ter
Ġr ang
Ġshe d
Ġme at
ĠA y
ĠP en
Ġint ended
ap ter
Ġoff ice
ret ty
Ġcount en
Ġrom ance
Ġanim als
ĠMa jesty
Ġpill ow
U p
i ott
p ected
Ġd on
Ġst y
ĠC arl
ĠD ora
ĠG ord
ĠH appy
Ġen er
Ġthr ill
Ġmar ched
Ġspo iled
Ġdra gged
Ind eed
Ġb ill
Ġr ope
ĠM ag
ain ty
ĠS lo
ĠP ar
ĠG iant
Ġar g
Ġar row
Ġdes cend
Ġsle nder
Ġlight ed
Ġroll ing
yl via
Ġhig her
kn own
Ġbrill iant
Ġconsc ience
Ġs ought
Ġw aving
Ġm otion
Ġd arling
Ġp ipe
oo ping
ra ph
Ġpl ump
Ġsk ill
Ġforget ting
Ġsli p
ĠCharl ie
Ġsal t
Ġsoc iety
Ġstol en
Ġb ay
Ġp ur
Ġbe ating
Ġsa v
Ġch in
ĠC amp
ig g
Ġgl ow
Ġdr owned
Ġstre ets
gr im
Ġcra zy
Ġdisappo intment
Ġscr am
Ġpor ch
G randfather
Ġr ail
pp y
ĠF ired
Ġfl ushed
Ġsc ared
tain ed
Ġgener ally
Ġfavor ite
M ary
Ġf aster
Ġd irty
Ġg arm
am my
Ġsh udd
ro p
Ġoff ic
ĠK ate
Ġper m
Ġmar ble
Ġwa ved
Ġcap it
Ġposs ibly
Ġwis hes
Ġhen s
over n
Ġsugg est
ĠFired ra
L ook
Ġb id
Ġp uff
se mb
Ġse p
il ty
ĠN ed
Ġcr ack
Ġstrong er
Ġdri ving
Ġfal se
Ġcarp et
Ġprompt ly
fashion ed
Ġvelve t
V ery
x ed
Ġl ones
ar th
ĠB uzz
Ġsp ear
Ġfe at
Ġam id
ick s
Ġheart y
ub y
Ġwand ering
Ġsens ible
ĠHo ly
Ġjud ge
Ġdign ity
ĠDou glas
c ast
Ġh ind
Ġh omes
Ġr ic
Ġwe ight
Ġsh owing
Ġle aped
ĠR ock
Ġv irt
Ġar my
Ġbit s
Ġatt r
iv al
Ġdanger ous
Ġash ore
Ġele g
Ġru le
d a
m o
y ed
it es
ra w
ĠT ake
Ġfl our
Ġpre fer
pt ion
Ġgl imp
Un cle
Ġsoul s
Ġmer chant
Ġext re
Ġer rand
ĠMarsh all
Ġmagnific ent
answ ered
Ġglimp se
T ell
b orn
l aw
l iness
Ġt ide
it ive
Ġc ush
Ġth ief
Ġp an
id ay
Ġst ret
Ġlike wise
Ġv ol
Ġun s
Ġacc ident
Ġste ep
Ġcol or
head ed
Ġdep arted
Ġinf lu
Ġesc aped
Ġdisc uss
ĠEll iott
Ġgift s
Ġune x
Ġpriv ate
Ġgrat itude
nat ured
Ġuncomfort able
D an
T wo
nd ar
Ġn ap
ot ty
Ġr iding
ĠM ark
ĠM ethod
Ġli ly
ak ened
Ġpart s
ĠPr ickly
Ġsun ny
Ġgaz ed
Ġsob bed
Ġsadd le
Ġuncons cious
b re
h and
l ers
Ġm atch
Ġst amp
Ġr um
ĠA li
ul ty
ĠC at
ĠJ ud
Ġro ots
Ġfl ash
ave ndar
ire s
Ġpro cess
Ġcont ented
Ġneed s
Ġfin ish
Ġcre am
irt s
Ġcheer fully
Ġgrand mother
Ġstri ke
Ġrid ic
Ġtrot ted
atur day
re ne
ut ed
Ġr ude
Ġch arge
Ġde arest
Ġfe e
li er
Ġrep ort
Ġdear ly
Ġsleep y
Ġste ady
Ġdou ble
Ġpap ers
Ġscar let
h ole
m in
Ġc ell
ir ing
op ed
Ġbo ats
um mer
Ġdis gr
Ġhor rid
Ġdeep ly
F inally
i pping
v est
er c
ac les
Ġwe eping
ĠB er
out ed
ĠL one
ĠL avendar
Ġpr im
Ġco ck
Ġthr one
Ġpossess ion
Ġharb our
Ġhist ory
b ly
d ge
s ed
Ġw re
Ġw ave
Ġf ed
Ġhe ap
or ough
Ġsu gar
Ġsp ace
Ġv ac
Ġany how
Ġpe as
Ġmother s
les ide
Ġho ly
Ġbeaut ifully
Ġsil ently
Ġrest ed
ond ay
ru ct
Ġcompan ions
Ġparl or
ean while
Ġbund le
Ġbough s
Ġcounten ance
ĠGord on
O M
T ake
Ġp atch
Ġst ately
ĠS ig
Ġfr ank
th ought
Ġcom b
Ġhouse ke
Ġcr it
ĠHe aven
Ġent h
ĠShe l
Ġnat ive
Ġpol it
Ġins isted
ĠRo bert
Ġeng aged
Ġwarn ed
Ġlear ning
Ġs ize
Ġb uck
Ġbe nd
om in
Ġse wing
ĠS aturday
ĠW ith
Ġch ose
qu il
ĠC am
Ġam bit
Ġcl aws
Ġthr owing
ĠY ear
Ġcur led
Ġspo il
Ġbrave ly
Ġstick s
Ġdism ay
Ġmid night
ĠCharlott e
Ġvar ious
A re
G r
Ġt ie
Ġm ile
Ġse ated
al es
ĠA ugust
ĠC ousin
Ġj est
Ġj eal
Ġho st
iz ing
Ġob eyed
Ġconf idence
Ġfre ed
Ġocc urred
Ġtreas ures
Ġnatur ally
ĠMo lly
Ġmort al
Ġtreat ed
OO K
ĠIng leside
ĠHu gh
ĠBuzz ard
G ood
w ork
Ġt id
Ġs ack
Ġb onn
Ġto re
Ġl an
Ġg oose
Ġshe pher
un ty
ĠS ch
Ġsee king
ĠC our
ss ing
ĠO l
Ġcle ared
Ġreal ized
Ġpers u
Ġpray ers
Ġmess age
Ġaccom pl
J ack
M eanwhile
c om
f essor
g o
g est
Ġf uss
Ġc op
Ġp ic
Ġshe lter
Ġso ot
il ies
ĠS ee
Ġpl ung
ber ry
Ġstr ing
Ġser ve
Ġdress es
Ġcap t
Ġdecided ly
Ġparticular ly
ĠFiredra ke
O T
Ġf armer
Ġf ern
Ġth orough
Ġst ag
ĠS now
ĠD on
ĠT w
Ġbo ast
Ġcon qu
ol og
os ing
bo y
Ġapp et
Ġdes ired
Ġaw oke
Ġmount ains
Ġneighb or
Ġyo nder
Ġbrisk ly
ĠCamp bell
Ġunex pected
P e
f ord
m ond
Ġb at
Ġc ong
Ġth irst
Ġr ate
Ġr ush
ĠM onday
ĠD eer
Ġab road
Ġbo d
Ġfl ag
Ġgl ory
Ġsto cking
Ġres ult
Ġfast ened
Ġexc use
Ġdep art
Ġdev il
Ġfort un
Ġself ish
Ġtremb led
ĠMist ah
Ġneg lect
ĠIsab el
M ay
o v
v a
he be
Ġc unning
oo ke
Ġgo vern
ĠG overn
Ġv en
Ġother wise
os en
Ġpart ly
Ġbed s
Ġrel ie
Ġrece ive
Ġinqu ired
ĠGold en
Ġlangu age
ĠSlo ane
l ow
u k
Ġ Z
re ls
Ġf le
Ġp ause
ĠH is
ĠBr ooke
Ġter r
Ġref use
ĠSh adow
Ġworth y
Ġenem ies
ĠAndrew s
Ġinterrupt ed
a e
Ġw ing
Ġb other
er a
Ġn amed
ut ch
ĠC ur
ĠH ill
Ġsw ear
So on
gg y
Ġpain ted
ĠRose mary
ĠPro fessor
ĠOw en
ĠWind s
Ġpos ition
g ress
Ġm ing
at ic
Ġc art
Ġc ure
as m
Ġp oured
ic ia
ĠS ylvia
Ġcl ub
Ġbet r
ĠY e
Ġfun eral
Ġbear ing
Al ice
Ġgaz ing
Ġdism al
Ġpoet ry
Ġo ak
en ger
Ġg aily
se qu
Ġst aff
Ġr isk
Ġwe alth
Ġdis pl
Ġcur ly
Ġcur ls
Ġwood en
Ġadd ress
Ġtem p
Ġadv ant
Ġpolite ly
ancho ly
Ġanc ient
Bl ack
Ġlones ome
Ġl ots
Ġp le
Ġg est
am ent
Ġtr im
Ġgood ness
Ġpro ceeded
ĠBr other
Ġlight ly
the less
ĠFr om
Ġap ron
Ġtor ment
Ġgro ve
Ġmark et
Ġflo ated
f ly
o ff
t ail
he el
Ġw reat
at ched
Ġp udd
st one
ĠW all
Ġbr ow
Ġpo inting
Ġcl er
li es
Ġgl im
Ġgre ed
ertain ly
Ġfore ign
Ġeas e
ett le
Ġinc re
Ġmel ancholy
ĠOn ce
M other
b en
n ut
t s
u x
Ġw ip
Ġm ater
Ġl ace
ic ing
Ġst ub
al ph
Ġsh rie
Ġch osen
ĠT ink
Ġhand ed
Ġfl ight
Ġfl ame
Ġtw ins
Ġcr ow
Ġhelp ing
Ġdirect ly
Ġtrave l
Ġcommand ed
Ġsty le
Ġsep ar
R ose
e el
n s
z ed
Ġb ul
Ġl ack
es sel
Ġas hes
ĠM E
Ġsh ade
ĠH aw
Ġpre v
Ġgl itter
Ġres ist
Ġsuc ceeded
Ġwis hing
ĠAll an
Ġquar ter
ĠAn nie
ĠPo lly
Ch apter
Ġmurm ured
Ġsuspect ed
Ġrepro ach
Ġber ries
S ammy
i ance
n es
Ġ uttered
Ġb ite
Ġc red
Ġg asped
Ġst ump
Ġsh aw
Ġme nd
th s
ĠT H
Ġpl um
ĠH a
Ġlo ves
Ġpo ison
Ġcl aim
Ġcl apped
Ġgl o
Ġhelp less
Ġdes ert
Ġgu ide
Ġcomfort ed
Ġsqu ire
Ġloud ly
ĠPe ople
Ġgar ret
Ġjeal ous
c ing
r ant
Ġw retched
Ġh ath
Ġb idd
Ġc ries
Ġin vent
ĠB ecause
ĠP oor
and er
Ġhapp ens
Ġpass age
Ġcons ent
Ġwear ing
ĠChrist ian
Ġass ured
Ġcho ice
Ġdiffic ulty
Ġsac rif
S usan
it ions
at or
Ġy ield
us i
Ġbr ush
ĠO ct
Ġcall s
Ġmay be
Ġmind s
Ġob ey
Ġaw a
Ġremember ing
Ġed uc
Ġimag ination
Ġsur ve
Ġswim ming
Ġamuse ment
Ġid le
ĠMor gan
Ġshepher d
I V
f aced
Ġp aw
Ġg n
et ru
Ġr abbit
all ow
ĠS outh
ĠR ain
Ġv essel
Ġdown stairs
Ġcl asped
co at
ank s
ĠBr it
Ġsent iment
Ġres c
Ġang rily
Ġcomfort ably
Ġaff ord
Ġfig ures
Ġbuild ing
Ġpir ates
ĠSpir it
F el
M any
Ġa rose
Ġm ant
Ġsa f
Ġde ck
Ġbl owing
Ġfl ashed
ang es
Ġsto ve
oc king
Ġtail s
Ġclose ly
Ġadm it
Ġadm ired
Ġreflect ed
Ġdest ro
isc illa
Ġcirc um
Ġbirth day
Ġbree ze
ĠGard ens
Ġenth usi
D iana
n ic
o dy
Ġt est
it able
Ġl ift
Ġl ines
en cy
Ġp red
ĠR ay
Ġpr oof
Ġtr out
em s
ĠY OU
Ġbar rel
wh ite
Ġma jesty
Ġnerv ous
Ġextre me
I D
a ved
i ven
Ġm are
Ġp il
Ġp age
ĠH IS
Ġex ist
Ġex amp
Ġtr an
Ġcom r
Ġco ach
ĠE x
iss ion
ĠJo y
Ġbec oming
uck y
Ġmar ked
Ġpart ed
Ġsn ake
Ġbu ff
Ġpri ze
Ġabs or
Ġhunter s
Ġscre am
Ġharb or
Ġdistur bed
Ġheav ily
Ġcapit al
A D
J erry
p es
Ġa ven
Ġf est
Ġd ainty
Ġl awn
Ġp ail
Ġfor ce
oo re
Ġr ad
ĠT im
Ġfl esh
Ġco ast
li a
Ġgi ves
Ġsto pping
Ġland ed
Ġadm ire
Ġtender ly
Ġdust y
Ġamaz ement
Ġsurr ounded
Inst ead
O ut
c up
e ep
Ġw ounded
Ġh ired
Ġm al
Ġto ssed
ing u
Ġin sp
im ents
ra h
ĠF irst
and al
ather ine
Ġun known
Ġhouse hold
Ġdr unk
Ġsweet est
Ġbank s
Ġopp ortun
Ġwhist ling
ĠMin ot
Ġprod uced
Ġbor ne
Ġwra pped
A Y
S T
b all
h i
l m
s ion
Ġh y
Ġh ood
Ġch ill
Ġv ig
Ġwild ly
Ġdep end
Ġele ven
Ġinflu ence
Ġlan tern
ĠRain bow
s ay
re g
re es
Ġth resh
as es
Ġp up
Ġp icking
oo ked
ust omed
ĠP res
ĠP hebe
ĠF ord
ab by
Ġv oy
iss y
Ġstr angers
Ġdoor step
Ġpret end
Ġsmall er
Ġang el
Ġmon ster
Ġsit u
Ġreco vered
Ġproper ly
Ġpun ishment
ĠInd ian
Ġsteal ing
Ġsubject s
Ġtrick s
Ġav o
Ġunus ual
Ġfis her
Black y
Ġexamp le
A my
s m
Ġt in
Ġd umb
Ġp ier
Ġsh op
Ġv ast
Ġsw ung
Ġdec ide
ĠPl um
Ġrap idly
Ġcoun sel
Ġcurtain s
Ġign or
Ġbonn et
O ur
Ġf ain
ĠI S
Ġv iolet
Ġday light
ĠE very
Ġvis ible
Ġwis er
Ġbow l
Ġcond ition
Ġluck y
Ġmor al
Ġb ud
ing er
Ġp ip
ac her
Ġr att
Ġr aven
ĠM ax
Ġse as
Ġtim id
Ġro ar
Ġafter ward
Ġpe eping
Ġkind s
Un c
Ġdro ps
Ġocc up
Ġabs ence
Ġcow ard
Ġteac hing
Ġcrowd ed
Ġmed ic
Ġfavour ite
Ġprin ces
ĠLou isa
g ment
it er
Ġm ut
Ġc aut
Ġn iece
Ġp ace
ro id
ge on
Ġint ell
Ġex erc
ĠE n
Ġbeg gar
Ġkeep s
Ġcut ting
aim ie
ugg ed
Ġbir ch
Ġann ounced
Ġprison er
Ġbless ing
ĠNor man
Jim my
Ġnurs ery
H ad
f ive
h ile
k ind
k ward
Ġb rand
ll en
Ġd ried
Ġn ic
ĠM oore
ĠW as
ack leton
ĠJ umper
ĠL ion
ĠR uby
Ġpl ate
bo x
ale b
Ġser mon
Ġdist inct
Ġfear ful
ĠLau rence
Ġjew els
Ġthresh old
B en
r ise
Ġto es
Ġc iv
Ġc ooking
st ers
Ġu r
Ġsh own
Ġhapp ier
Ġour s
mer ic
Ġent ertain
Ġpres ented
Ġhung er
iv id
Ġexc iting
Ġexpect ing
Ġtrave ll
utter ing
Ġsong s
ĠEm il
Ġprot ested
Ġsol itary
Ġmurm ur
Ġech o
Ġrelie ved
Ġcircum st
F irst
S c
U R
s n
Ġb ust
Ġe mer
Ġan ch
Ġsh o
ap er
ĠH ouse
Ġgr oup
Ġmo an
Ġsc rat
Ġdis g
Ġfin est
Ġhum ble
Ġpull ing
Ġship s
Ġsold ier
Ġann oy
Ġearnest ly
Ġfier cely
Ġaccept ed
Ġdw elt
Ġslipp ers
Ġplung ed
Ġappet ite
he era
Ġa x
Ġd ashed
Ġl ately
Ġr are
qu et
ĠJ ason
Ġbo l
Ġpo se
ag heera
ĠE ur
Ġtell s
os ition
Ġpres er
Ġdist ingu
Ġtra p
Ġinter v
Ġdoll s
Ġmagic ian
Ġaston ishment
Ġasp ect
Ġstead ily
Ġridic ulous
Ġwreat h
C K
G ilbert
w a
Ġ 2
Ġl imp
ĠI an
Ġy ards
ight ed
ĠB el
Ġkn ock
Ġch at
Ġch ain
Ġsp ort
ĠD or
Ġthought fully
Ġsil very
Ġlight s
Ġinst inct
Ġnice ly
ĠSp otty
Ġflo ating
Ġamaz ed
Ġdon key
Ġc age
ar se
Ġno is
ĠT re
ĠR alph
ous ins
Ġpl ant
Ġcl ung
Ġwat ers
ere mon
Ġwind s
atch am
Ġent rance
up on
Ġdro pping
Ġstand s
ph ant
Ġpat iently
Ġmist aken
Ġpast ure
Ġabs urd
Ġappro ached
ĠCar rier
Ġdeser ted
Ġjack al
Ġemb roid
Ġchick en
Ġben ch
ĠTur tle
Ġbewild ered
ĠSig urd
Ġstocking s
Ġshaw l
Ġb ath
id ney
Ġst at
ĠD ot
Ġint rod
Ġun fortun
Ġen ch
ĠMar tha
ĠPr iscilla
Ġdr inking
iz z
Ġmaid ens
Ġfro zen
Ġdev oted
Ġfort night
Ġlead ing
Ġstir red
Ġacqu aint
Somet hing
Ġpra ise
ĠCour t
m ber
p ri
Ġd az
Ġr am
ĠM art
Ġdo ve
ĠD ay
ĠG ive
Ġpo pped
Ġsc ore
Ġhor ribly
Ġgu ilty
Ġaw hile
Ġsum mon
Ġvis ited
Ġcre ep
ĠBen n
Ġcatch ing
ĠEm ily
Ġgun s
Ġmention ed
Ġdw arf
Ġdiamond s
c u
Ġa uth
Ġc ousins
Ġc eremon
Ġbe e
ir g
al o
Ġup set
ĠS n
ĠB oy
ĠP ye
Ġno on
Ġab rupt
ĠH igh
Ġgr ad
ber ries
Ġturn s
ĠCh ug
Ġbeh ave
Ġsl ave
Ġuse less
Ġtou ching
Ġmer rily
Ġscre amed
Ġagree able
Ġpig s
Ġresp ons
Ġaccord ing
Ġwist fully
Ġglor ious
Ġglo ves
F armer
Ġb le
Ġm ice
an z
Ġp our
Ġg ates
ad m
ic ard
Ġst ock
Ġse es
Ġsh ock
ĠA quil
qu ent
ĠJ une
ĠG ill
ĠT ackleton
ig s
Ġam b
Ġim per
Ġper ple
co d
Ġdear ie
Ġsle e
Ġret ired
Ġrest ing
ĠDo g
Ġent reat
Ġspr uce
Ġord inary
Ġgrave yard
Ġsuff ering
ĠSc ot
Ġarr anged
Ġbell s
Ġdesper ate
Ġcab in
Ġimmense ly
ĠCol onel
Ġsevere ly
ĠJoy ce
ĠAquil a
F ather
Ġt ip
Ġh ook
Ġf asc
it ure
Ġm ix
Ġto ps
Ġhe m
ĠM ont
Ġsh abby
Ġk ettle
ĠB ull
ĠB less
ĠT HAT
um pty
ist en
ink led
Ġcon sequ
Ġjust ice
Ġfl ies
Ġpre ssed
ĠBl air
uff y
Ġland s
Ġpray ed
gr ound
Ġimag ined
ĠAle x
gl ass
Ġmour n
Ġcher ry
Ġwid ow
Ġcomplete ly
icard o
D own
g reat
Ġf itted
Ġc rew
as ping
ot ted
ic y
ĠA meric
ĠC on
ck s
ag ger
Ġwr ath
Ġsn apped
Ġreturn ing
ib ility
Ġsign s
Ġart ist
Every thing
Ġmess enger
Ġpar ce
Ġacqu ainted
Ġpear ls
Ġenv y
Ġdisgr ace
A T
C B
G ive
O r
Q u
b ird
v ol
Ġt ucked
Ġf ulf
Ġto mb
Ġhe ight
Ġd ue
Ġin h
Ġwh ip
Ġu mb
ir m
Ġr ipp
Ġnot ion
ĠW ould
ĠJ ed
Ġwhere ver
Ġsun light
Ġimp ul
Ġcont empt
Ġfoot step
Ġdisapp ear
Ġmer maid
Ġtri al
Ġscar ce
ipp a
Ġbeat en
Ne ither
Ġgloom y
Ġprett iest
Ġgather ing
ĠWo lf
Ġimpress ion
Ġeleg ant
Ġgest ure
C E
Ġc attle
Ġl ux
Ġth ither
Ġg ri
ic ian
Ġsh rew
ĠS ome
Ġli ber
Ġwhen ce
ĠH ester
urn ed
Ġar ch
Ġwo lves
sh outed
ĠYou ng
cl am
ĠRed mond
Ġanx iety
ĠNot hing
Ġwand er
Ġpock ets
Ġgaz elle
Ġph ys
Ġswall owed
Ġfeat ures
Ġopportun ity
Ġumb re
M ore
Ġa pt
in al
it he
is ion
Ġd amp
Ġin j
Ġst ooped
Ġwe ep
ill ian
Ġsh oe
ell ing
Ġch ased
qu is
Ġex ch
Ġthought ful
ol ate
Ġho pped
Ġpers ons
Ġjump ing
Ġmer cy
ĠGod s
Ġplan ned
Ġport ra
An other
Ġsurf ace
Ġgarm ents
b or
b el
l ain
m ons
p ent
Ġb raid
Ġwas ted
Ġwh ither
Ġst al
Ġr uff
ĠT O
Ġle ct
Ġcl iff
Ġdis ag
Ġchild ish
Ġrem oved
Ġem p
Ġacc ustomed
Ġcond uct
cul es
Ġstudy ing
Ġsac red
Ġtrem end
Ġadvant age
Ġmedic ine
ĠMart in
f ty
p hew
v or
y ou
Ġb ub
it z
Ġhe aps
Ġl ame
le br
Ġne phew
ĠS im
ĠP ant
Ġsu ited
Ġfr own
ĠG us
ab eth
ĠR ome
Ġro ast
Ġnow here
Ġtw isted
Ġac hed
Ġmar ch
ia h
Ġcons ented
ĠGr ant
Ġfur ious
Ġabs ol
oun ce
Ġsail or
Ġparl our
Ġpic nic
Ġcred it
Ġabsor bed
Ġench anted
c ip
m aster
Ġt ap
Ġa im
Ġm edd
ĠM er
Ġk ick
ĠD es
ĠR oy
ist ol
ol es
Ġbel t
Ġte le
Th ose
Ġforg iven
Ġste el
Ġvis ion
Ġconf usion
Ġbur den
the y
Ġclear ly
Ġsub s
Ġfaith fully
Ġsorrow ful
Ġce lebr
ĠPro v
Ġconcer t
Ġutter ly
Ġsul t
John ny
Ġincl ined
Ġribb on
ĠIr ving
Ġglitter ing
Ġbidd ing
Ġsaf ety
Ġscrat ched
C ould
I R
a qu
b ab
Ġt ent
Ġf ountain
ing ton
Ġn ut
se y
Ġr ous
Ġbut ton
ud ent
Ġapp re
Ġaw fully
Ġgener ous
Ġcompl ain
Ġscre aming
Ġbold ly
Ġclos et
Ġwag on
Ġpant ry
oura ged
ĠNe il
Ġfee ble
B oth
C an
b ur
he m
he art
ar ily
an i
Ġp aws
Ġsh ower
ĠS ol
Ġno d
ĠR icardo
Ġpr on
Ġcl ut
Ġunder t
les ome
Ġsk et
Ġaw kward
Ġfour th
Ġcoll ar
og raph
Ġmir th
Ġdeser ve
Ġdam sel
Ġscram bled
Ġming led
A gain
Ġo rig
Ġh umb
Ġb ows
Ġth orn
Ġbe es
Ġse al
al t
ce an
ĠS u
Ġch ase
ĠC al
Ġor n
Ġtr ump
Ġtr acks
Ġfir s
Ġsn ug
Ġend s
Ġres ent
Ġsch ol
Ġtri p
Ġexpress ed
ĠNan a
owd er
ĠInd eed
Ġrag ged
Ġeffort s
Ġblossom s
ĠMill er
B owser
E L
G H
V ER
l or
w ater
Ġa id
Ġd imp
Ġl unch
Ġst air
ĠM atcham
ĠA unty
ĠP etru
ul ted
um ent
Ġun se
Ġboy ish
Ġwo e
Ġapp eal
Ġad orn
Ġrel ig
Ġmeant ime
Ġass ure
Ġart ic
Ġbound ed
Ġfail ure
Ġdecl are
Ġrespect able
Ġhurry ing
Ġpun ished
Ġscr atch
Ġrejo iced
Ġspec ial
Ġdisag ree
aqu eline
I M
N an
S e
v ous
Ġb as
Ġf an
Ġc ult
Ġth ump
Ġp ed
Ġp ies
Ġwh irl
ac ob
Ġha unted
Ġst age
Ġre nt
ĠB ible
ĠA very
Ġkn itting
Ġde bt
ĠH im
Ġro be
ist le
Ġsc amp
ĠCh ar
Ġsl im
me e
Ġob ed
Ġsuc ceed
Ġmur d
ĠCar ol
Ġarr ange
Ġcent re
Ġconv in
Ġswall ow
Ġlit er
Ġshell s
Ġgroan ed
Ġprocess ion
Ġpudd ing
F aith
f ish
n al
z ing
Ġ iv
Ġf ully
Ġe re
Ġst icking
ĠW ait
Ġch ina
ĠF riend
Ġbr ings
op ing
op her
ap es
ree k
Ġco ax
ass ad
Ġrem orse
Ġswe ep
Ġpres ents
Ġdress ing
Ġem br
Ġstep mother
Ġmus lin
ĠBe aut
Ġarr ows
arb our
ĠTheod ora
ĠSoph ia
ĠAN D
ĠMethod ist
Ġhouseke eper
Ġfern s
Ġthorough ly
Ġpil grim
L ightfoot
N or
a a
c at
c an
c ase
Ġo w
Ġf i
Ġf ret
Ġf rog
Ġd ug
Ġn in
Ġp urse
om p
ac hes
Ġr ushes
Ġsh ield
ĠB rer
ĠW H
Ġwho lly
Ġbr ain
ĠL ily
Ġhand ful
Ġrun s
ens ive
Ġstri king
Ġtast ed
aff y
Ġpot at
Ġequ al
ĠJoseph ine
Ġeduc ation
l orn
Ġo gre
at ives
Ġd arted
as el
ver ing
et ing
Ġr ud
Ġk itten
ess ion
ĠC are
Ġal ike
Ġlo vers
arm ody
Ġgirl ish
Ġlet ting
Ġrep ent
Ġsun rise
Ġneighb ours
Ġprep ar
Ġstro ke
ĠLe on
Ġaccom pan
Ġtwink le
Ġhol es
Ġfurn iture
Ġunp leas
yn th
Ġsav age
Ġcell ar
Ġexist ence
B OOK
L aurie
M att
Ġb ord
it ate
Ġc akes
is en
Ġn er
et ter
st al
Ġr ushing
ĠB agheera
ĠD el
Ġle ather
ĠH ind
Ġag ony
Ġtr ade
Ġhand le
Ġen chant
Ġfeel s
Ġjo b
Ġatt itude
Ġrel uct
Ġmis er
light ly
br idge
Ġfree ly
Ġnest s
Ġtur key
Ġcand le
ĠHer cules
ĠGrand ma
Ġaud ience
Ġcraw led
Ġauth or
Ġfasc in
F r
L ong
M eg
W alter
o inted
Ġm ult
is p
Ġl in
en ny
et own
Ġha l
ĠP uck
ell o
ĠC aleb
Ġde ed
au d
Ġbr im
ink s
ĠE le
Ġcare s
gg ing
Ġche ered
Ġret reat
Ġind ul
Ġind iff
Ġreal ize
Ġdeep er
Ġinv itation
ett a
Ġcol t
Ġhundred s
Ġarri val
__ _
Ġviol in
Ġval ue
Ġmap le
Ġfreed om
Pe ople
Ġbetr ayed
Ġcircumst ances
c r
g room
in ter
Ġm ate
Ġg ain
Ġsa iling
un ting
ĠP an
ĠT roll
Ġbl own
ĠE s
Ġpro s
Ġapp arent
ĠPr issy
Ġdes k
Ġdr um
Ġcont ri
ĠV ance
Ġstart ing
Ġem pl
Wh ite
uth bert
Ġtra g
Ġmiss ion
ann el
Ġappro aching
Ġtrust ed
Ġph il
Ġru in
Ġspark ling
Ġwhisper ing
Ġstrugg le
Ġvict ory
Ġimpat iently
rep lied
Ġlar ger
ĠBer tha
ĠShel ton
Ġvoy age
Ġabrupt ly
Ġsult an
ynth ia
Ġempl oy
R ight
r ough
Ġs om
Ġo ven
Ġg a
om en
Ġwas hing
Ġwe e
Ġwe ap
ĠM aimie
Ġme mor
ra ham
Ġde ce
ĠJ aqueline
Ġor ph
ĠR em
Ġpl ac
ne ct
Ġgr ate
ang led
arm ing
Ġim age
Ġmar ve
Ġca w
ĠTh ou
Ġbelie f
Ġlay ing
Ġser iously
land s
Ġdist ress
ĠWe asel
ha ired
Ġev ident
Ġsend ing
Ġloud er
ĠBab y
Ġshr ill
ĠCharlott a
Ġtempt ed
ĠCan ad
Ġimpat ient
Ġrecogn ized
ĠEliz abeth
Ġhes itated
ĠMir anda
P lease
a ult
Ġs im
Ġo x
Ġhe lm
Ġn aked
ar ies
ld er
id er
Ġfor lorn
ĠM al
ĠM amma
am b
ĠP lease
Ġgo d
us sy
ĠC he
ĠC armody
ĠC uthbert
ĠL illian
Ġbo b
ick et
Ġpe w
Ġsc ent
Ġnew sp
oth y
Ġsn atched
ĠTh y
Ġob st
Ġconf essed
Ġpray ing
Ġpap a
Al an
ees e
Ġconcer ned
ĠEd ward
eless ly
ĠMist ress
ixt een
Ġsitu ation
Ġanch or
Ġacquaint ance
Ġfootstep s
E T
Y e
a way
c ause
Ġs our
Ġl id
ĠM ur
Ġsh ri
un ice
ĠS idney
Ġli br
us es
Ġwor ks
Ġbr ood
ĠO p
Ġex ha
ĠN ight
Ġtr ack
Ġtr ace
Ġbl ows
ĠK night
fort une
Ġcoll ect
Ġdirect ions
Ġtrave lled
Ġpath s
Ġshout ing
Ġgaz e
Ġremark s
ĠOn ly
ĠThank s
Ġremind ed
Ġindign antly
Ġtrif le
ĠSch ool
adm us
g irl
r ude
Ġw ilt
in qu
Ġh int
Ġhe dge
Ġin k
om on
Ġe tern
ic cu
Ġr at
ĠJ es
ĠJ ul
ss es
ĠH arry
ne ath
Ġeven ings
Ġpart ing
ĠTh ief
Ġdel iver
Ġsupp ly
Ġcount ed
Ġadd ing
Ġpain t
Ġgen ius
Ġdep ths
Ġcontin ually
Ġtrave lling
ĠX V
Ġwel c
Ġbride groom
Ġpun ish
Ġeight een
Ġaunt s
Ġremark able
Ġstern ly
Ġdistur b
Ġwit hered
Ġforb idden
ĠDuck s
cod ile
Ġumbre lla
A M
C aptain
L ike
b u
e ak
i en
m p
Ġs ke
as hes
Ġg ames
le gs
Ġbe et
Ġk icked
Ġme adows
ĠW il
ĠW heel
Ġsp ots
Ġde vel
ĠJ acob
ĠT illy
Ġint end
Ġover head
ers on
Ġgr acious
hen s
Ġac he
Ġsl aves
Ġcomp ass
Ġgu ards
urp le
Ġburn t
Ġdut ies
ĠDe ath
add in
Ġpract ice
Ġalarm ed
Ġprin cip
Ġmeek ly
E AR
T IT
h o
i qu
r iment
Ġw oo
Ġw ives
it or
it ched
Ġbe ckon
Ġbe fall
Ġnot es
ĠS ept
ĠS ancho
ĠC a
Ġbr ushed
Ġv ague
Ġpl at
ĠH al
ĠH all
Ġper f
Ġad op
Ġgi ants
ec hes
ib s
Ġlad der
Ġdec ent
Ġsqu ee
ĠRo ad
Ġcompl iment
Ġchest nut
Ġfill ing
Ġgrace ful
Ġspect acles
Ġmod est
Ġdesper ately
TH ER
Ġprefer red
Ġax e
Ġinh ab
Ġunpleas ant
b ack
Ġt end
Ġo il
Ġo we
Ġo cean
Ġb one
Ġp ul
Ġp itch
Ġp ines
Ġse ed
Ġbut t
ust y
ĠP y
ĠP ur
ĠP urple
Ġkn elt
ĠW el
Ġch ir
ĠC ynthia
ĠT em
Ġv owed
Ġlo ft
Ġoff ended
Ġen orm
Ġfind s
Ġking s
Ġdel ay
Ġdec or
Ġfright en
Ġtail or
Ġjoy fully
Ġbreath less
Ġthick et
Ġpeace ful
Ġhen house
Ġquar re
Ġsear ched
Ġsober ly
Ġrag s
Ġjack et
Ġcontr ast
Ġvent ure
Ġevent s
Ġener gy
Ġvac ation
Gr anny
Ġstub born
Ġshrew d
Ġfi ery
L e
m ates
t xt
w arf
Ġf ired
Ġm ent
Ġp atter
Ġy awn
Ġwh ir
ac co
if y
ch ild
Ġsh ine
Ġsh ivered
ĠC ind
Ġbr ass
Ġro aring
Ġold est
Ġun like
Ġsc en
Ġunder neath
Ġown er
Ġper il
ĠY ellow
ĠSt r
Ġpret ending
Ġwal ks
Ġwonder fully
ĠDo lly
Ġneed le
Ġcorn ers
Ġroad s
Ġsecret ly
Ġgrow led
Ġeag le
Ġhar sh
ĠPo int
ĠPo ppy
Ġcor rect
ik in
Ġstud ied
Ġunus ually
Ġtick led
Ġcush ion
GH T
Ġlibr ary
TIT LE
ĠSept ember
g iving
p ina
r n
w ith
Ġh ym
Ġl ass
Ġl onel
Ġn et
an ke
le x
Ġre ck
Ġan k
ĠA nt
Ġqu iver
ĠH ur
Ġlo b
Ġlo sing
ile y
Ġhome ly
Ġsl ain
Ġcomp osed
ĠThe seus
Ġmean while
Ġarm ed
Ġdr ift
Ġste am
Ġadd ressed
Ġgard ens
ĠSh all
ser pina
ĠBab u
ĠPl ace
Ġrust ling
Ġspl it
Ġspect acle
Ġcontr ary
Ġmant le
Ġconvin ced
assad or
b acco
i pt
l ock
r ain
he ard
Ġm ast
ir ation
Ġshe et
Ġsh irt
Ġup ward
ĠS mee
el p
ĠC admus
Ġno vel
ĠD warf
ep end
Ġbl iss
Ġam iable
Ġback s
Ġchild hood
ark s
Ġend ure
Ġsent ence
Ġinv ol
Ġsecret s
Ġsuff ic
Ġchar ity
ĠAd am
Ġclos er
Ġgle am
Ġgreet ed
Ġthirst y
Ġbod ies
ĠBrit ish
clam ation
I LL
O ver
i ber
l est
t in
Ġt umble
Ġs ixteen
Ġb unch
om m
oo ps
Ġr ival
ĠM on
al ing
Ġsh aken
Ġsh ocked
Ġme als
ĠA ny
Ġli ons
ĠG host
and y
ab b
ĠL ove
ig er
Ġfl ood
Ġsw inging
ĠK en
Ġstr ain
Ġper ceived
ĠCh ild
ail ing
Ġsn uff
ĠTh ree
Ġwin ked
Ġpain s
Ġclim bing
Ġune asy
Ġant lers
ĠCharlott etown
Ġspl ash
Ġreflect ion
EN T
ĠLaw less
Ġindign ant
Ġrequ est
Ġspin ning
Ġgrie ved
Ġwip ed
ĠSol omon
J ane
L A
in n
Ġto bacco
Ġd agger
as se
Ġe rect
ĠM oss
ĠS al
ĠB ad
Ġgo at
Ġwho ever
Ġfe ars
ĠH am
ĠH are
ĠH ello
Ġsc are
os ia
Ġbig gest
cl oth
Ġsing ular
Ġpat hetic
Ġmis ery
Ġfro lic
Ġsix ty
Ġinter f
Ġpoint s
Ġhide ous
Ġfaint ly
Ġtwink led
semb led
S p
S ara
T w
j ust
Ġs ung
Ġw akened
at ure
Ġc am
es e
on ies
Ġsa uc
ur gan
ĠS lightly
ro l
ard ed
Ġfr ame
ast ic
Ġch airs
Ġde af
ĠD O
ĠG et
Ġman ly
Ġwill ow
Ġover come
Ġyour selves
ĠH un
hing s
ĠN ancy
Ġmother ly
ĠY ork
Ġrest ored
Ġel o
Ġremem br
Ġinst ance
Ġaw are
Ġsweet heart
let s
Ġmis fortune
Ġdin ing
Ġmer riment
Ġdisc ont
Ġabs ent
Ġkill ing
ĠEll is
Ġsens ation
Ġcho ked
Ġfault s
Ġprot ect
Ġsoc ial
ĠPhil ippa
Ġcomm un
Ġstrugg led
Ġvict im
Ġhig hest
Ġcab b
Ġcoo ked
Ġmeas ure
Ġblaz e
Ġcoff in
Ġunfortun ate
Ġtremend ous
Ġdisagree able
Ġplat form
N one
P retty
R O
W o
W endy
l oy
t rees
Ġs its
in ite
Ġm ah
Ġto oth
Ġbe f
om i
Ġon ward
st and
ac on
am in
Ġkn eel
out s
ĠJ er
ĠD addy
ĠG ert
art s
Ġint ense
ĠH en
Ġlo ad
Ġag ed
Ġex claim
ĠN OT
Ġbeg ging
There fore
Ġcr ad
Ġbeh aved
Ġmind ed
ĠSt ar
ĠV ict
Ġter ms
Ġcry stal
Ġfa ire
Ġmouth s
Ġfre ck
Ġstrange ly
Ġearth ly
Ġinv is
Ġve xed
Ġrec alled
Ġlam ent
Ġprep are
Some how
Ġgall ant
Ġmill ion
Ġexam ined
ĠPer seus
Ġneglect ed
Ġcult iv
A m
P aul
R em
W he
t r
Ġs y
Ġo d
Ġh ounds
Ġb ou
ou rage
Ġf er
Ġm ates
Ġd ived
Ġp ages
Ġp acked
Ġg ained
Ġr ank
ĠS T
pp ose
Ġsp an
Ġsp ared
Ġde m
ound ing
ĠL ind
Ġpl ants
op es
Ġtr ous
Ġun m
Ġun gr
Ġsm oot
Ġlast ed
Ġown ed
Ġrep res
Th ough
Ġsince re
Ġconf used
Ġshort ly
Ġcre eping
Ġunderstand ing
Ġmiss ing
Ġbitter ness
Ġtong ues
cely n
ĠDav is
Ġdeser ved
Ġrejo icing
col oured
Ġsuspic ious
Ġimpro ve
Ġest ab
Ġling ered
ĠLuc y
ĠGill is
E ach
Ġw ink
Ġc ard
Ġp ush
es c
ow l
Ġr oo
Ġr ings
Ġwho lesome
ĠG u
ĠT affy
ĠL at
Ġover t
Ġpl ot
Ġro ared
Ġex quis
Ġbl ade
Ġcl over
Ġtw ist
ĠE va
oot les
Ġsweet ness
ĠAl icia
ond on
Ġfoot pr
Ġrel atives
Ġhum our
Ġwarm th
Ġlif ting
Ġpower ful
Ġlead er
Ġsens es
ĠPro serpina
Ġrob bers
ĠFl int
ĠAb raham
Ġvent ured
ĠOr chard
ĠEliz a
ĠPres by
Ġexerc ise
Ġciv il
Ġrud dy
Ġexquis ite
P her
R I
c a
l ished
r ows
s ays
u its
Ġt ing
Ġto nes
Ġp istol
ĠI rene
ut ation
im a
im ble
st e
Ġha ul
Ġr ig
Ġshe lf
ĠW AS
ĠC ount
Ġal as
ĠD i
ĠF al
ĠT e
Ġqu aint
Ġlo yal
ĠO ur
Ġam ount
Ġcon tain
Ġfl ames
Ġper ch
Ġche ery
ub s
Ġfoll y
Ġbright ly
cept ion
Ġmaid s
Ġfat al
ugg er
Ġproper ty
Ġnodd ing
Never theless
Ġhol iday
Ġdwell ing
icks ilver
Ġfortun ate
ĠGovern or
Ġcler k
Ġintell ig
Ġdaz z
Ġceremon y
Ġpros per
Ġwelc omed
ĠPresby ter
D ear
a omi
b ler
u ish
w oman
Ġs ar
Ġh ats
Ġf iddle
is le
Ġl ump
ĠI N
ot uk
im us
ver ty
Ġre bell
ro ken
ind ed
Ġch or
ĠD uke
ĠL ondon
Ġpl ucked
um ai
Ġex ceed
Ġpo verty
Ġpe b
Ġsat in
Ġcr ou
Ġpleas antly
Ġcare lessly
Ġkind red
Ġdr ifted
iver s
ĠV iolet
ĠV irg
Ġdro ll
ial s
ĠFr anz
Ġshadow y
Ġtor t
Ġharm less
Ġwise ly
Ġpen ny
Ġscr ub
Ġprov ince
we et
Ġprett ier
Ġrecoll ect
Ġdispl ay
Ġglim mer
Ġsummon ed
Ġliber ty
otuk o
B illy
C ec
T LE
b ut
b ted
c ade
c hen
t here
w ill
at ors
Ġp add
Ġp ounds
Ġg orge
Ġher mit
Ġas yl
Ġst all
Ġst are
Ġr ipe
ĠM arm
Ġdo le
ri gg
ĠS anch
ĠA fter
ĠP retty
ĠC o
Ġj er
Ġint ent
Ġcon nect
ak s
Ġcl ump
Ġmu ff
Ġsm iles
Ġdre ary
Ġhapp iest
Ġcr acked
Ġelse where
fe rence
Ġass ist
Ġsword s
wh is
Ġma jor
Ġrec ord
Ġappro ach
Ġmur der
Be ing
Ġru ined
Ġspark led
ĠMac Pher
Ġtwink ling
ĠFour th
Ġmod el
Ġwaist coat
Ġlock s
Ġpir ate
Ġcord ial
ĠSpir its
Ġscold ed
Ġwist ful
Ġlim bs
Ġdistr acted
Ġshudd er
Ġresc ue
ĠPlum field
Ġviolet s
ĠEur ope
Ġlux ur
Ġabsol utely
H alf
n ot
t is
t een
v an
Ġh arp
Ġm ite
Ġl un
Ġp ump
es tern
om a
ot hered
Ġwh im
oo per
Ġr ais
Ġr asc
Ġwith d
Ġre ar
Ġre ven
il ar
ĠS ands
ĠP ack
Ġsu llen
ĠW ar
Ġch anges
Ġj elly
ck er
Ġus ing
Ġco pper
ish ly
Ġfo g
ĠE ast
Ġdis gu
ud ge
co vered
Ġsupp ort
Ġbed room
Ġcur iously
Ġbright er
Ġhum or
Ġsatisf y
Ġsub st
Ġhar vest
Ġhen ce
ipp er
Ġbask ets
Ġsail s
Ġmove ment
Ġhonest ly
ĠBree ze
ĠInd ia
Ġprov o
Ġtempt ation
col m
Ġpop l
Ġsniff ed
Ġfrag rant
Fel icity
Ġembroid ered
Ġinvis ible
g own
l ass
m inded
o ard
u ously
Ġt une
Ġt umbling
Ġw ed
Ġb ang
Ġhe ather
Ġl ull
Ġg ulf
se ct
Ġshe er
Ġsh ows
ĠB ur
ĠP ry
ĠC iccu
ge red
ĠT ony
Ġro ot
ick en
ĠE ve
Ġgl owing
Ġwant ing
Ġsl id
Ġdr own
Ġbreat he
Ġhast y
Ġide as
Ġcoll ected
Ġprop os
Ġprep aring
Ġcourt iers
OU LD
Ch arl
Ġmark s
cell a
Ġpear l
Ġlaw y
Ġwit ness
Ġfeed ing
Ġgreet ing
ĠJud ith
Ġbend ing
Ġsacrif ice
Ġextreme ly
Ġtran sp
Ġmix ed
Ġexha usted
Ġlonel iness
M owgli
b ows
i antly
j amin
r idge
Ġs oup
er on
Ġl a
as er
ic o
Ġst ool
ill ing
ĠM U
ĠM at
ĠS er
itt ens
Ġkn ot
ĠJ ess
ĠF ancy
Ġbr ows
ven ient
Ġbl ithe
Ġun kind
Ġpe ering
Ġbeg ins
Ġgl ist
Ġpro ceed
Ġthrough out
Ġlove liest
ĠCh urch
Ġtal ent
Ġimp ressed
Ġlight ning
ĠGr imes
Ġref uge
Ġbreat hed
Ġwild er
Ġmouth ful
itc her
Ġfur y
Ġtrave ls
Ġbelong s
Ġsuccess ful
ĠCec il
Ġweak ness
Ġrob ber
Ġadmir ing
ĠSe a
Ġfis hes
Ġprec ise
Ġconscious ness
OM E
Ġdepart ure
Ġvig or
Ġappre ci
ĠBeaut y
Matt hew
ĠMur ray
Ġshri ek
ĠHen ry
ĠMacPher son
D avy
I L
J os
M ost
X V
r ate
w or
Ġb ars
Ġl ilies
Ġbe ars
Ġse w
Ġse am
Ġse lect
ĠS il
Ġout l
Ġde eds
ĠF ro
ĠT it
ĠL ud
Ġpl anted
Ġam using
Ġgr uff
Ġcl am
Ġear ned
Ġwa x
ost on
Ġsn ap
Ġsle igh
ĠTh istle
Ġind epend
Ġser pent
Ġair y
Ġaw e
Ġlad en
Ġadv anced
ĠSahib s
ĠAb el
Ġrul es
Ġattr act
Ġple aded
ĠMal colm
Ġinhab it
Ġenorm ous
Ġremembr ance
Ġasyl um
D aisy
L ast
O ther
f lies
n o
w as
he us
Ġw aken
re sp
Ġb on
Ġth ine
Ġp ony
on by
Ġin ch
Ġwh ipped
Ġha unt
Ġr owed
Ġdo d
Ġwhe els
ĠB oston
ĠP al
ind eer
ĠW ay
ĠW ild
ĠW orth
ĠC ertainly
Ġno ses
and ora
Ġbr ace
Ġbr ick
ĠL ad
Ġqu ant
Ġqu ilt
ĠH arm
Ġcl ay
Ġsm ith
Ġsc andal
Ġho arse
Un a
ub by
Ġdel ivered
Ġplay s
ĠDo es
Ġspr ung
Ġsweet ly
Ġbright ened
Ġact ion
Ġkiss ing
Ġquar ters
Ġmir acle
Ġwhist led
Ġsymp at
Ġimm ort
Ġcott on
Ġmed it
Ġequ ally
Ġcaut iously
ĠProv idence
ĠChar les
ĠCare y
Ġprepar ations
Ġaccompan ied
Ġmiser ably
White foot
Ġphil os
Ġcrad le
A L
S E
S ir
U N
b in
Ġt it
Ġm as
Ġc ask
Ġd il
Ġl at
Ġl ag
Ġp owers
Ġfor med
ĠM ugger
ĠW ater
ĠT ime
Ġint ention
Ġex ec
Ġpr icked
ink le
Ġgr ind
Ġpe ac
li p
ĠE arth
Ġsw amp
leas ed
Ġsl ay
Ġcur rent
Ġspo on
ĠV an
Ġatt ended
Ġstay ing
Ġfear ing
Ġmis chie
ĠSh ore
Ġsnow y
Ġinv al
Ġact ive
ann a
Ġsorrow fully
Ġbene f
roo ked
Ġrust y
Ġeng age
Ġimport ance
ĠRos etta
Ġspeed ily
Ġsuspic ion
Ġrul ed
Ġinform ed
Ġoffic er
Ġcop y
Ġslee ves
ĠAlex ander
Ġparce l
ĠTem ple
rn est
I X
b ar
h an
l ad
m os
o ber
p a
t hen
u a
u ld
u able
v il
Ġt as
re y
re st
ic ious
Ġr ice
ĠM ore
Ġme mb
ĠA f
ĠP E
ĠP a
Ġde ceived
ĠJ on
Ġor ange
Ġtr ad
Ġgr ain
Ġback ward
ĠE ag
Ġcr ash
Ġcr ushed
lp h
Ġexp ed
ere s
ĠSt ella
Ġrest less
ond ed
Ġtear ing
Ġfour teen
Ġcol ours
Ġcoll ection
ĠQu icksilver
Ġdisco very
Ġexpl an
Ġsmo king
Ġchar iot
Ġthousand s
ĠHo ll
Ġport ion
Ġoccasion ally
Ġden y
Ġextra ord
Ġperm ission
Ġstret ch
Ġcomr ades
Ġdisg ust
Ġinterv iew
Ġportra it
Ġadorn ed
Ġpotat oes
ĠLeon ard
Ġgrate fully
J anet
V E
d own
i um
l ong
m aker
n uts
r al
s ome
re am
Ġo ath
Ġh oof
Ġm art
Ġbe aming
Ġre indeer
ĠM ed
Ġnot ed
Ġdo ings
itt ered
ĠA pp
Ġch anging
ĠC raw
Ġab oard
Ġman sion
ĠL o
Ġtr oop
Ġfl uttered
Ġfo am
Ġoff ering
Ġhome ward
Ġbet ray
ud ged
ĠSt an
ĠSt acy
Th ree
ret t
Ġsil ken
Ġinst ruct
Ġdra ught
Ġair s
ĠAl as
Ġcount ing
Ġem otion
Ġmarry ing
Ġve get
Ġreco ver
lo red
Ġmad am
ĠAr chie
Ġcompl iments
Ġjud gment
Ġslight ly
Ġdign ified
Ġtrans form
Ġconst antly
Ġspear s
Ġcrit ic
Ġgrad ually
Ġlect ure
ĠVict or
Rem ember
Ġtrous ers
D anny
b ish
n ikin
p ad
p here
t op
w orth
Ġd iss
Ġl ung
Ġn ast
Ġwh it
Ġst or
Ġat mos
Ġli king
Ġpl ates
Ġcl aw
Ġco ve
Ġwr ought
Ġche ap
ER E
ĠAl addin
Ġbu ggy
umb ers
Ġdoubt less
Ġrec all
ĠPh ill
ĠFair ies
Ġdism iss
Ġele phant
Ġph ot
Ġboard ing
Ġmem ber
fl owers
Ġpra ised
Ġregard ed
ĠGrand mother
Ġconce aled
Tom my
Jim s
amm ered
Ġbrid le
Ġribb ons
Ġpeas ant
ĠCam eron
ĠHaw k
Ġiv ory
Ġatmos phere
N at
P addy
a fter
i ge
m ate
p ost
r ous
w he
Ġt roll
Ġa y
Ġa ver
Ġm ail
Ġd i
on ed
Ġbe ech
Ġe c
Ġso il
al i
ch air
ĠB at
ĠB ow
ĠP andora
ĠW oman
Ġle vel
Ġv ivid
um my
Ġbl ushed
Ġgr ant
Ġfl ush
Ġstr ict
Th ou
Ġsk irt
Ġem pt
Ġhum ili
gr own
Ġaff l
Ġtra ged
Ġir res
eng ers
ĠSm ith
Ġins ult
Ġvisit or
ĠCl are
Ġwond ers
Ġsal mon
ĠEm peror
Ġglass es
Ġver anda
Ġoccas ions
Ġcro p
Ġprot est
ĠMin nikin
pper ty
Ġprof ession
ĠJames ina
Ġtrot ting
Ġstrugg ling
Ġpurs ued
Ġbrid al
ĠPar is
Ġtid y
Ġconqu er
Ġgovern or
Ġdestro y
Ġamb assador
Ġpron ounced
Ġapparent ly
inqu ired
Ġchor us
Ġmemb ers
ĠCraw ford
E m
I GHT
Ġ ing
Ġt ipt
in ia
Ġo ars
Ġb ump
ou f
Ġg ird
ad ays
om s
ĠI l
ly ing
Ġe lect
Ġher d
Ġst eed
ĠS ister
ĠS weet
ĠB oo
ĠB arb
ĠP ons
Ġkn ocking
Ġal t
ĠT ootles
ĠL urgan
ĠR and
ĠR uth
Ġlo d
ĠO N
Ġgr ows
Ġgr umbled
Ġgl oss
ĠK aa
ĠMar ia
Ġho b
ĠSt uffy
Ġspe ck
Ġdr am
Ġcont ents
Ġatt ack
ĠBl ue
Ġbreat hing
Ġmist akes
Ġwear iness
Ġdraw er
Ġinf inite
Ġir r
Ġap olog
Ġstro de
Ġexper iment
Ġworry ing
Ġmel ted
Pr ince
Ġleap ing
Ġthreat ened
Ġsevent y
Ġrapt ure
Ġperm itted
Ġstret ching
Ġaccompl ished
Ġven erable
Ġavo id
Ġannoy ed
Ġrous ed
Ġschol ar
Ġorph an
Ġmarve ll
Ġbeet les
loy d
ĠPons onby
H aving
R o
T r
c ut
w ind
it a
Ġto ler
en ched
Ġp ian
es y
Ġg able
le gged
ac ity
ur al
Ġsh ove
all a
ĠB h
ĠB ill
ĠA ng
um in
ĠH E
ĠH ath
Ġper i
Ġper ched
Ġbus ily
Ġsk irts
Ġdark ly
Ġaw akened
Ġdream y
Ġatt ent
umb s
Ġpat ted
Ġref res
Ġstrong ly
ĠFr iday
ĠFr aser
Ġpain ful
Ġwarm ly
Ġcross ing
Ġlam b
ĠCl ara
Ġrub bing
ĠAn n
lic ted
ĠBell e
Ġchuck le
Ġcoun cil
Ġbloom ing
ĠLaw rence
ĠMad ame
Ġimpro ved
Ġincre ased
ĠOct ober
Ġaven ue
wa ite
Ġorig inal
Ġbutt ons
ĠPy g
ĠLat in
whis pered
ĠHarm on
Ġmischie vous
Ġextraord inary
Ġlung s
c iously
e v
l it
m ir
r s
r owed
Ġs way
Ġw iz
Ġc ents
ing ed
is elle
Ġd un
Ġd angers
Ġl ent
Ġn ook
or g
Ġp arr
Ġp owder
Ġp itcher
Ġr h
Ġr ats
Ġsa ving
Ġsh ru
ra ft
ĠC rooked
Ġj u
ĠF ul
Ġwor m
Ġle is
ĠL loyd
Ġv ines
ig ue
ĠN E
Ġgr anted
Ġfl own
Ġar cher
ĠE p
Ġper se
Ġper ce
Ġapp ointed
Ġpart ies
Ġsl ope
Ġhigh ly
mb alla
Ġyouth ful
Ġdisapp ro
ĠAh med
Ġsign ed
Ġplan ning
Ġhappen ing
ĠAn na
Ġvan ity
Ġaccount s
Ġune as
Ġtur tle
Ġcro codile
Ġsol id
Ġsol itude
ĠGer da
Ġtriumph antly
Ġdiv ided
ĠFred a
enn eth
Ġprec ip
Ġcoff ee
Ġattr acted
Ġcush ions
Ġtravell er
Ġhumb ly
Ġwilder ness
b ag
g reen
r as
Ġc ig
Ġc aps
Ġc udd
Ġg er
Ġin sect
ot i
Ġst ammered
Ġre igned
ĠM R
Ġsh apes
ĠS omet
ĠB ar
ĠT wo
Ġbo nd
Ġtim idly
Ġlo aded
Ġpr int
Ġun able
Ġcon tained
ty ard
ling s
Ġcour tyard
Ġche ese
foot ed
Ġpal m
Ġschool master
Ġsqu ir
itc hes
Ġdoubt ful
With out
Ġsign al
Ġresol utely
Ġfarm house
ĠU mballa
Ġfashion able
Ġver se
cri pt
Ġra ise
col ored
Ġscorn fully
ov ic
Ġbuff alo
Ġsket ch
ste in
J ill
d oor
p o
r ified
t at
v ation
w r
Ġa ck
Ġw ire
re al
Ġb ase
Ġm ethod
Ġd omest
Ġp u
Ġg igg
Ġbe er
Ġy ell
ve mber
Ġr ack
Ġre vel
ĠM il
Ġup right
Ġsu its
Ġout ward
Ġsp un
th ur
ĠJ am
Ġbr ains
Ġtr un
ick y
Ġnow adays
Ġpre ss
Ġpre ach
ĠE unice
Ġpro gress
Ġrem ains
ĠMar cella
Ġapp l
Ġche la
od e
Ġred s
Ġres umed
Ġinv ite
Ġlow ered
Ġsplendid ly
Ġcal f
Ġesc ort
ann is
ĠCl ark
Ġsail ors
ĠPl enty
Ġtur b
Ġstir ring
Ġsob bing
Ġexam ine
ĠIr ish
Ġdescend ed
mo iselle
Ġpersu aded
Ġsentiment al
Ġner ves
ĠLind say
Ġstor my
A b
A way
D r
m oon
in er
re et
Ġo per
Ġb achel
ll s
Ġd irt
Ġg ap
ĠI van
Ġha w
Ġr asp
Ġre ver
Ġse wed
ĠC atherine
ĠL isten
Ġover heard
ĠH ush
ĠH ope
Ġro g
Ġpo em
ĠN elly
Ġgr asp
av ia
Ġwa ked
ĠHe ad
Ġimp lored
Ġel bow
Ġsoft ened
ĠJack al
eg umai
Ġins ist
Ġdisc ip
Ġtender ness
Ġappro ve
Ġappro pri
Ġring ing
uzz y
ĠAr thur
Ġsens itive
Ġcond em
Ġrap id
Ġpa using
ĠJos celyn
Ġneat ly
Ġviol ent
Ġbor row
Ġsul ky
Ġgrim ly
ĠMad am
Ġfrank ly
Ġgreed y
Ġreproach fully
Ġpup ils
Ġignor ant
Ġunse en
ĠChe ster
Ġirres ist
Ġack now
B eth
L eslie
M Y
S ince
h oles
l ace
Ġw ard
Ġb rig
it ively
Ġm ot
Ġd uke
Ġr ows
ĠM ess
Ġsh ift
Ġsh alt
ore s
il ful
ĠC ap
ĠC ove
Ġj aws
ĠT ree
Ġint im
Ġbo ot
Ġro d
Ġbl ush
Ġthr ong
ĠJo anna
Ġcr utch
Ġho pping
ord an
Ġhard est
Ġfather s
Ġsn atch
Ġspe eches
ĠBr ight
ĠNo vember
aster n
Ġinst rum
Ġcons ult
Ġdream ily
ey ond
ins on
uc king
Ġconf id
Ġsend s
Ġrespect s
Ġtor ch
Ġconsid ering
IT TLE
Ġviol ently
Ġval uable
Ġslight est
Ġdusk y
Ġheat hen
Ġchick ens
Ġperform ance
ĠLong legs
ixt ure
Ġslipp ery
Ġdescri bed
Ġmotion less
Ġvirt ue
Ġcong reg
Ġratt led
Sc rooge
ĠThy ra
Ġscen es
ĠGert rude
Cec ily
Ġgorge ous
D Y
e f
h allow
Ġo wing
Ġb ash
Ġb ald
Ġto ssing
Ġl ined
Ġin ches
id dy
ly sses
ir ies
Ġst ake
Ġr isen
Ġre ins
ĠB ry
ust ri
Ġkn it
Ġj ar
Ġj am
ĠL ake
ĠH i
Ġlo fty
Ġpo ked
Ġcr ooked
Ġcar ved
Ġswe eter
Ġfire s
Ġang uish
Ġdeep est
Ġwhis ked
ĠFr ance
Ġadv ised
Ġsign ific
og ue
ĠLy n
Ġhurried ly
vere nt
Ġbutter fly
Ġshoot ing
Ġuncons ciously
Ġrecoll ection
bre ak
Ġpred ic
sm ith
Ġdistingu ished
Ġfascin ating
Ġcontri ved
Ġtrag ic
ĠRem ora
Ġlob ster
ĠSal ome
Ġlawy er
Ġinhabit ants
ĠPE TER
Ġtraged y
Ġpian o
C H
e ve
i que
l au
p ers
p iece
Ġt ar
Ġt ables
Ġw rigg
Ġh anged
Ġb ills
at ory
Ġto ys
se ll
Ġr amp
Ġr aced
ur ry
Ġse eds
ĠB est
ĠB ird
ĠP age
Ġfr owned
qu ently
Ġde g
ie ve
ĠT egumai
ĠL av
our se
ĠH as
ĠN aomi
Ġbl ast
Ġcl inging
Ġhead ed
ang s
Ġsw ore
ĠK ipp
ĠK otuko
Ġdis ob
Ġdis cer
ip er
Ġnew ly
Ġte ase
Ġcur se
Ġspo ilt
Ġswe eping
Ġamong st
Ġob sc
Ġspr ay
Ġcons ol
ER Y
Ġfright ful
Ġref resh
Ġmer it
Ġact ed
Ġinf ant
ĠBe ast
Ġvisit ing
Ġcra ft
Ġpen cil
Ġinc red
ĠMatt ie
Ġshr oud
ĠU p
Ġimpat ience
Ġattend ants
Ġsuper ior
Ġscold ing
Sh all
ĠSw allow
Ġsuggest ion
Ġpuff ed
Ġric hes
Ġambit ion
Ġpip es
ĠMax imus
Ġcelebr ated
Ġperf ume
Ġpeb bles
ĠLav inia
h ind
l eness
m ore
u el
w en
Ġt un
Ġw aking
Ġw ounds
Ġf idd
Ġg ull
Ġbe au
id ays
ac iously
ke red
ĠM Y
Ġli p
ul ously
Ġsp y
ĠJ e
ĠD ID
ĠG unn
ge nd
and el
Ġwill ingly
Ġbr u
ĠL ow
Ġbo il
Ġtheir s
ĠH alf
Ġro s
ĠO LD
ĠN ibs
It s
Ġhand y
ag ing
Ġar d
Ġgl ances
ount ed
Ġcr isp
Ġbeing s
me eting
ĠTh ose
Ġdel iber
od ge
Ġent ering
Ġprom ising
Ġhope ful
uc es
Ġpers isted
Ġland ing
Ġcre st
Ġbar king
Ġdri pping
Ġsplend or
Ġaff licted
Ġunc ertain
ugg ing
Ġstar ve
Ġconsid erable
Ġgay ly
Ġeld ers
Ġobser ve
Ġcor p
Ġmor sel
ĠSqu ire
Ġpor ridge
Ġhabit s
Ġpassion ately
pr ise
Ġmour ning
Ġresp onded
Ġghost s
Ġanc est
Ġdescri be
Ġsevent een
Ġener get
Ġwre st
ĠGovern ment
Ġterr ified
Ġshrie ked
hi bit
izz ie
Ġimpul se
ĠCarol ine
Ġexceed ingly
ĠEag le
Ġalt ar
Ġmarvell ous
ĠHath i
ĠFul ke
Ġdomest ic
A B
E ric
M e
b urn
g age
i ably
u ing
u ine
z el
Ġ 3
Ġt y
he lia
Ġf id
Ġf ri
Ġto il
Ġc ough
Ġc ured
Ġg e
Ġg ale
id ents
Ġst ooping
Ġre dd
Ġre cess
ur g
Ġdo ct
ĠS i
ĠB E
ro b
el w
ess a
ul ated
ra b
Ġgo b
ĠC eres
Ġaf ar
Ġpo king
Ġco b
Ġhow led
Ġsw ell
ol ph
ĠCh arming
Ġmost ly
Ġsl ide
Ġcomp ared
ĠThe se
Ġdark ened
Ġres er
Ġres igned
Ġsurpr ising
Ġrel ations
Ġgarden er
ĠSp ring
Ġjoy ful
Ġmer c
Ġadv ise
Ġtra ps
Ġriver s
Ġrespect fully
Ġcharm ed
arr ass
Ġcup s
Ġgrin ning
Ġdisp osition
Ġcoun ter
Ġtriumph ant
Ġpit ied
Ġconce al
Ġpop ular
Ġrequ ired
Ġlab or
Ġkeen ly
Ġreve aled
enn el
unn o
Ġrev ol
Ġunl ucky
Ġthrill ing
Ġstamp ed
Ġpour ing
ĠOp helia
Ġpul pit
Ġhym n
Ġsmoot hed
ĠJess ie
D uring
U M
g randfather
h ip
Ġ z
Ġthe at
Ġf ame
ed ing
Ġm ound
Ġm ixture
Ġl il
Ġl ust
or ter
Ġp ark
Ġin her
Ġbe ads
im et
Ġe p
Ġr ug
Ġsa uce
ĠM ost
ur ity
ĠP ers
ĠP ark
ĠJ ean
ĠH ER
Ġlo af
Ġpre ssing
Ġpe ered
Ġmo cking
ĠE ven
ang le
Ġright s
Ġlove liness
Ġrep utation
Ġear lier
Ġkind led
ĠSt op
Th rough
Ġche ering
Ġsun be
Ġsk im
Ġdra gging
Ġdead ly
Ġang els
Ġbright ness
Ġbur y
ĠFr itz
ru ly
Ġsli pping
Ġdoubt s
Ġpol ice
Ġprop he
Ġbox es
Ġsand y
ĠU lysses
pe cker
Ġbag s
bl ue
Ġmud dy
Ġuncom mon
Ġpassion ate
Ġfet ched
Ġemb arrass
Ġaffection ate
Any way
omest ead
Ġbul r
Ġsurve yed
Ġignor ance
Ġnewsp aper
Ġment al
ĠPresbyter ian
Ġsympat hetic
ĠShore by
Ġperi od
Ab out
D emi
G et
N ay
g ie
o lly
p ie
r im
w ick
Ġh omestead
Ġb ind
Ġf ant
Ġf oul
Ġd a
Ġy arn
Ġas sembled
Ġr ays
ke rel
ĠM e
ĠM el
ur ance
Ġse rene
ch an
th ony
Ġbr am
ĠL ives
ĠR uss
op sy
Ġro cking
Ġag es
ĠN ell
Ġbl ock
Ġday time
Ġcan n
ild a
Ġco cked
Ġpre ced
orn s
ĠE rnest
Ġgl ancing
dd ing
Ġtal ks
Ġdes olate
Ġrest ore
up s
ĠV ERY
Ġfall s
Ġwhis k
Ġcol ors
Ġperson al
Ġgrass es
Ġimag in
Ġass umed
Ġvisit ors
Ġappro ving
Ġrain bow
ĠSc ott
Ġpen it
Ġresol ution
Ġcompl ained
ĠPe ace
Ġgall oped
Ġconcer n
Ġinqu ire
Ġspell s
Ġrust le
Ġstud ent
Ġconv ul
Ġenc ourage
Ġdifficult ies
Ġtrem ble
Ġapart ment
Ġscra pe
ortun ately
Ġech oes
Ġhospit al
Ġoffic ers
Ġhomes ick
Ġgn aw
Ġstat ue
ĠBenn et
Ġperple x
ĠSim on
Ġorn am
Ġow l
Ġlin en
Ġpropos al
ĠMU ST
ĠJon as
Ġnast y
ĠRand all
A K
a ly
f our
f old
m ered
Ġf ist
Ġf its
Ġf aced
Ġf ainted
Ġc as
Ġhe ir
Ġd aint
im er
Ġe b
ic ated
Ġas cend
Ġst ab
Ġsa ints
ĠM ol
Ġse ats
el ope
Ġgo ds
ĠC ro
ĠG reek
ĠF ear
ĠF uzzy
ie ves
Ġle gend
ĠL aur
ĠL izzie
Ġover l
Ġover fl
ĠH A
ĠH ands
Ġdown ward
ne ver
Ġpr ow
ĠN onsense
Ġtr oops
Ġbl ushing
Ġcom ical
Ġgood s
Ġfl owed
Ġfo e
ĠE lves
Ġgl owed
ĠK enneth
os ure
Ġbeh av
Ġsn akes
Ġhop eless
act ory
ĠRed tail
Ġsk ipped
Ġdr ows
Ġspr uces
ob den
Ġfin al
ĠSh aw
Ġgen uine
Ġtri b
ĠTo ady
Every one
Ġprop ose
ĠBab a
Be hind
Ġcourt esy
Ġce iling
Ġconcer ning
Ġpin ned
uct ion
Ġknight s
Ġoccasion al
Ġtight ly
Ġconv iction
Ġpos itively
Pr ickly
Ġpurs uit
Ġcoo lly
Ġlar gest
Ġwre ck
Ġcong rat
Ġyield ed
Ġawa ited
Ġcomr ade
Ġfisher man
Ġoccup ied
Ġintrod uced
ĠBenn ett
Ġfulf illed
More over
Ġindiff erent
Ġweap ons
Ġhelm et
Ġwhir led
Ġinvol unt
Ġexclaim ing
Ġrasc al
ĠHoll and
Ġcongreg ation
imet heus
ĠLives ey
C ar
F ortunately
b ury
c ap
h anded
i ences
k ily
m aking
r ison
v ale
Ġt ut
Ġto m
Ġc ards
Ġhe aped
Ġl ain
Ġg inger
Ġin ward
ĠI da
ut ions
if ting
Ġk ennel
ust ace
ĠP eg
ĠW ard
Ġch ains
Ġch asing
ĠC ast
ĠF e
ĠF ar
Ġwor sh
Ġwor ship
Ġbr on
ĠH OW
Ġlo c
Ġpr ick
Ġcl apping
ag er
ful ness
Ġco al
ĠE ben
arm ed
Ġstr ings
ff man
Ġright ly
ny ard
Ġpleas ures
xt on
Ġdes ign
Ġche cked
Ġcont rib
ĠNo body
ĠBut ter
Ġjo kes
Ġfear fully
Ġpat ron
Ġconf ident
Ġquick er
ee ch
Ġfre quent
Ġenjoy ment
Ġtem ple
Ġinv est
ject ed
Ġwar ri
Ġhot el
ĠCar roll
Ġsuit able
Ġshr ank
Ġaffect ed
Ġtrain ing
ĠHo ffman
Ġcor resp
na e
Ġfal tered
Ġham mer
Ġreve rence
Ġdig ging
Ġinform ation
Ġinsp iration
Ġdistinct ly
Ġecho ed
Ġbol t
Ġexch ange
Ġrelig ion
Ġreluct antly
Ġmult itude
ĠThanks giving
Ġpatter n
Ġdiscont ented
Ġkneel ing
Ġreven ge
Ġappropri ate
B ell
H ook
L CB
R CB
g a
m ar
t oes
z ek
Ġt yr
Ġf il
is her
Ġd aring
Ġl ur
Ġp iled
Ġg room
le e
Ġas so
ĠM oon
Ġse ize
Ġis s
un ge
ĠP atter
Ġgo gg
qu er
ĠC ave
ĠD umpty
ĠL asse
Ġpl uck
ĠH y
Ġaf ore
Ġpr anks
Ġcan v
Ġfl uttering
Ġfl annel
Ġhow l
Ġsc he
Ġput s
Ġmar sh
Ġwind ing
Ġsl ate
Ġkeep er
ĠSt ew
Th ink
Ġarm our
Ġdr ooping
Ġcur l
app le
Ġsmall est
Ġbu zz
Ġreal ity
Ġwin ning
Ġfur iously
Ġtri als
Ġdoubt fully
Ġfro gs
Ġmusic al
Ġstar ving
Ġpay ing
ert ie
Ġrespect ful
Ġrece iving
Ġeight y
Ġchuck ling
Ġpill ows
Ġguard ed
ĠSe ven
Ġid ol
Ġcand y
lin or
Ġprett ily
Ġcher ished
Ġmeas les
Ġduck s
Ġhospit able
Ġrapt ur
Ġsoot hing
Ġtemp est
Ġnic est
Ġrespons ibility
Ġperple xed
Ġhem lock
Ġplac id
Ġprecise ly
ĠEp imetheus
zek iah
ĠPatter son
C ertainly
I O
P at
S ay
b red
f orth
l ance
Ġto t
is che
Ġd ing
as ons
ar um
ar ah
Ġp ett
Ġin ex
Ġe t
ac ios
Ġha ught
Ġr idden
if orm
Ġsh am
Ġup side
ĠS oc
ĠS low
itt a
Ġch oo
Ġsp ied
ĠC ould
Ġal ighted
ĠD un
ĠG en
ĠL ITTLE
Ġbo iled
Ġun just
ear s
ĠK eep
Ġsc ow
Ġsomet ime
Ġrep ay
sh ot
Ġwr inkled
Ġsl umber
ĠHe zekiah
Ġbelie ving
Ġlight house
Ġcur ve
Ġel bows
Ġob li
ĠGr ace
Ġtri be
br own
sy che
Ġcontin ue
Ġdisc ouraged
ĠSunday s
Ġcup board
Ġpin ched
__ __
che on
Ġstiff ly
Ġtrans l
oura ble
Ġmat ron
Ġheav ier
Ġneighbour ing
Ġshiver ing
Ġmoss y
Ġdispl ayed
Ġsepar ated
Ġrad iance
ĠAmeric an
Ġhal ted
Ġsar cast
Jos ie
ĠSil as
Ġuneas ily
ĠMol inda
acios a
A cc
B eyond
N D
U nder
m et
u le
w est
Ġt um
he um
Ġa h
Ġh ugged
Ġb att
Ġm ach
Ġd ate
Ġp anted
es ley
Ġg eese
ad ise
Ġst ing
Ġwe ars
Ġre aching
Ġup l
ĠA sh
ĠA lph
ĠP ut
ast e
Ġch illy
ĠC re
ĠD en
Ġloo s
Ġwor ries
Ġor gan
Ġpl ough
um ents
ap ers
ĠH old
ĠH orse
ĠO ut
Ġpr udent
Ġtr ained
Ġbl unt
Ġun iform
Ġfl ashing
em pered
Ġen vel
Ġsm elt
Ġhead ache
ĠK ir
Ġseem ing
ol k
uck le
uck ily
Ġwr ung
Ġsl am
ĠBr ing
ĠBr uce
Ġimp l
iz zy
Ġdec ision
iv i
Ġdou bted
Ġprincess es
ĠChrist opher
Ġhurt s
Ġinter p
Ġeager ness
Ġcourt e
Ġstro ked
Ġburst ing
Ġcharac ters
Ġgle aming
Ġhol idays
Ġleap t
Ġblank et
See ing
Ġvol ume
Ġmater ial
ĠScot ch
Ġinj ured
Ġruff led
ĠPant ouf
Ġsubs ided
Ġstair case
Ġbeckon ed
Ġbefall en
ĠFro st
Ġindepend ent
Ġimmort al
Ġlag oon
Ġexped ition
Ġhoof s
ĠFuzzy tail
Ġasso ci
A r
B et
B ab
E x
e av
g ra
h ot
h ouses
m ers
o ed
s k
Ġo l
er red
Ġm uttering
Ġd er
ar ly
Ġwh ale
Ġst em
Ġst ew
Ġr ip
Ġr heum
ĠS on
ĠP ict
ĠP ert
ĠW right
Ġch attering
ĠC yr
ĠJ enny
Ġv ine
um ption
ig ers
ĠH on
ĠH ooper
Ġtr u
Ġfl ute
Ġmo ist
ĠE ustace
Ġgl ove
Ġrem ed
Ġpart ner
Ġte xt
Ġca vern
Ġworld ly
ĠWh it
Ġend eav
ens on
eed led
Ġread ily
Ġsor rows
Ġsch oon
Ġfam ilies
Ġfine ly
Ġwin king
Ġfool s
Ġcross ly
ĠMy ra
Ġshore s
Ġgrass y
Ġwear ily
ina x
arer s
Ġhar ness
ĠDr ummer
isk ers
Ġstro lled
Ġsear ching
Ġbir ches
Ġvain ly
Ġprov ided
Ġfold s
Ġmort als
Ġid iot
ĠWood s
Ġdiv ine
Ġregular ly
ĠIsab ella
Ġest ate
ĠLuc inda
Ġvirt ues
ĠMethod ists
Ġpolit ics
Ġenthusi asm
Ġpup il
Ġnic er
ĠPant her
bab y
Ġobst in
ĠJes se
Ġcabb age
ĠMarm ee
ĠMat ilda
Ġexplan ation
ĠPhill ips
Ġaffl iction
Ġgloss y
Ġwiz ard
Ġbulr ushes
ĠPert inax
J em
P AN
b ec
c alled
m eline
Ġt u
Ġt ew
Ġw estern
Ġo wed
Ġd izzy
Ġn ar
om er
st ri
Ġha il
Ġst if
Ġr ash
Ġre semb
un ken
ĠB ay
ĠB al
Ġli qu
ĠP arn
ĠD ra
ĠT essa
au c
Ġbr ute
ĠL odge
Ġv ow
ĠH arbour
Ġex clamation
Ġpr inted
Ġnever theless
Ġgr aciously
Ġfl utter
Ġfl attered
Ġmo or
ĠCh ief
Ġte ased
Th ank
ret urned
Ġsn ub
Ġneed les
Ġste pping
Ġvis age
Ġdread ed
ĠSh adows
Ġmus k
Ġmist y
Ġyouth s
gr am
Ġve x
Ġstar ved
Ġpol ished
Ġrec omm
Ġarri ve
Ġstri p
Ġappear s
Ġdare say
Ġdoll ar
Ġform s
ĠMay be
Ġheaven s
ĠEnglish man
Ġprof essor
Ġrepe at
Ġstuff ed
Ġelder ly
Ġpract ical
Ġrecogn ised
Ġfurn ished
Ġbal ance
Ġarg ument
Ġgarm ent
Ġambit ious
Ġaccompl ish
cup ine
Ġtravell ers
Ġmoan ed
ĠHigh land
Ġmedd le
Ġpilgrim age
Fr ank
Ġbob bing
Ġprovo king
ĠHalf man
A d
O S
O ff
R e
b rah
g on
o ise
p ole
v able
Ġa ching
Ġs ins
Ġs inking
Ġh ug
Ġb idden
Ġto ll
Ġn ay
an ter
Ġp ad
Ġp all
Ġp ushing
Ġg asp
Ġin ner
Ġbe ak
im an
ve ls
ly n
Ġsa int
Ġre verent
ĠM ock
Ġwhe at
un cle
el ow
Ġout er
Ġch ums
ĠC H
th at
ĠG ud
ĠF at
ap a
ĠH ome
Ġtw igs
orn ing
Ġhow ling
ble m
ĠE linor
Ġsc or
Ġbec omes
Ġshall ow
Ġrep ose
Ġdear s
sh ore
ons o
sp ir
ĠWh ich
Ġcomp re
Ġsk ins
Ġdark est
ĠAl ma
Ġhold s
ĠBen ares
Ġsplend our
ls a
Ġtall er
Ġill ness
Ġgrow th
Ġcra b
ais ies
ĠEll ie
ĠAn thony
Ġminister s
Ġclever ness
Ġball s
Ġrid er
ili us
Ġrough ly
AN D
onn ik
Ġstud ents
ĠGerman s
Ġban ner
Ġhither to
Ġblaz ing
Ġric her
ĠShel by
Ġfle et
ae us
Ġwip ing
Ġmater nal
ĠOct avia
Ġrad iant
Ġhy ster
Ġbud s
bird s
Ġinterf ere
Ġcrou ched
Ġphot ograph
Ġbachel or
Ġcongrat ul
ĠAlph onso
ĠPantouf lia
brah im
B less
D av
M ake
S urely
c ent
h ill
l icity
t ops
w ife
w eed
Ġ ut
Ġw ret
ll ie
Ġd hole
Ġth irt
ar ter
ot ions
oo h
oo led
Ġr aw
Ġre asons
ĠM oti
if th
Ġsh irts
Ġdo st
all s
ri est
ĠB O
ĠA D
ĠP or
ĠP ine
ood le
ĠW ashing
ĠC ross
ĠC oll
Ġj ug
Ġab und
ĠT annis
ĠR oman
op ard
um sy
Ġqu ivered
ĠH obden
are well
Ġbl amed
Ġcon venient
ak y
Ġfl av
Ġfl inging
Ġmo ck
Ġsc iss
Ġmar ching
Ġhor iz
ever al
Ġtre acher
Ġind ivid
ister s
Ġdark er
ery bing
so ever
Ġcap able
Ġvis ions
Ġvis its
Ġpat ting
Ġland sc
Ġground s
Ġcast ing
Ġstraight way
Ġrock y
Ġhusband s
Ġmoon lit
Ġwis est
Ġrub bish
Ġvan ish
Ġcompl aint
Ġespec ial
ĠPe erybing
ĠWilliam son
Ġpriv ile
Ġpant ing
Ġcharacter ist
ĠSw ord
Ġling ering
Ġwing ed
ĠTink er
Ġsurve ying
Ġdestro yed
Ġbrand y
Ġmemor ies
ĠPry or
Ġglist ening
ĠLud ovic
Ġphilos oph
Ġengage ment
ĠLyn x
H a
H elen
M ah
P P
a ac
c ount
j p
p art
t able
t empered
w orn
y ear
Ġ ess
Ġt ub
Ġa le
Ġs ink
in th
re spect
er ment
at ers
Ġto ken
Ġc ert
Ġhe el
ing le
Ġd ip
Ġd ub
Ġl icked
Ġl aws
Ġp ound
Ġp um
Ġp omp
Ġg ild
ĠI mp
id u
Ġher oes
Ġher bs
Ġr ay
Ġr attle
Ġshe ets
Ġsh ark
Ġk en
ĠB alf
ĠB etter
Ġsu nd
Ġwill ows
ĠL ike
Ġv ic
Ġpl atter
Ġpl unge
um es
Ġex ult
Ġco d
Ġco in
Ġgl ared
Ġstr ay
ĠMar ie
ĠMar ian
Ġcr ime
Ġset s
Ġwr iter
ere lla
Ġsl ab
Ġsun k
Ġcomp elled
Ġgu ine
Ġsound ly
Ġstre aming
ĠFox ham
ĠWe e
Wh ich
Ġcold ly
Ġrel ated
Ġbar ked
Ġwarm ed
Ġkiss es
Ġreason able
Ġvill ain
urs day
Ġcharm s
Ġinc on
ific ation
ĠInd ians
ĠAs ia
Ġfanc ies
ĠCr an
Ġden ied
Ġblaz ed
Ġrum m
ruct ion
Ġinvent ed
Fel ix
ĠTim my
bab ies
Ġartic les
Ġank le
ĠAnt aeus
ĠHur ree
Ġdisgu ise
Charl ott
ĠCecil ia
ĠBh ag
Ġparr ot
Ġdeg ree
Ġcorp se
ĠPark er
Ġcorresp ond
Bet ween
Dav id
ĠWashing ton
Ġsciss ors
ĠPeerybing le
B ob
C l
C hatterer
F ar
S everal
T Y
W ait
b ud
c ont
d ale
f ire
i els
l ine
o ft
p ath
r ice
s ch
s kin
Ġt ame
Ġa isle
Ġw ages
Ġb un
er lad
Ġd ough
Ġd ive
Ġd ates
Ġl umber
en ch
Ġp ins
Ġp ots
es cend
ut o
Ġher ds
ic ip
The od
ight on
Ġsh ady
Ġme chan
il ted
il ities
ĠS l
ĠB oul
ĠB enson
ĠA LL
Ġsu p
Ġsu bt
