{"<|endoftext|>":0,"!":1,"\"":2,"#":3,"$":4,"%":5,"&":6,"'":7,"(":8,")":9,"*":10,"+":11,",":12,"-":13,".":14,"/":15,"0":16,"1":17,"2":18,"3":19,"4":20,"5":21,"6":22,"7":23,"8":24,"9":25,":":26,";":27,"<":28,"=":29,">":30,"?":31,"@":32,"A":33,"B":34,"C":35,"D":36,"E":37,"F":38,"G":39,"H":40,"I":41,"J":42,"K":43,"L":44,"M":45,"N":46,"O":47,"P":48,"Q":49,"R":50,"S":51,"T":52,"U":53,"V":54,"W":55,"X":56,"Y":57,"Z":58,"[":59,"\\":60,"]":61,"^":62,"_":63,"`":64,"a":65,"b":66,"c":67,"d":68,"e":69,"f":70,"g":71,"h":72,"i":73,"j":74,"k":75,"l":76,"m":77,"n":78,"o":79,"p":80,"q":81,"r":82,"s":83,"t":84,"u":85,"v":86,"w":87,"x":88,"y":89,"z":90,"{":91,"|":92,"}":93,"~":94,"¡":95,"¢":96,"£":97,"¤":98,"¥":99,"¦":100,"§":101,"¨":102,"©":103,"ª":104,"«":105,"¬":106,"®":107,"¯":108,"°":109,"±":110,"²":111,"³":112,"´":113,"µ":114,"¶":115,"·":116,"¸":117,"¹":118,"º":119,"»":120,"¼":121,"½":122,"¾":123,"¿":124,"À":125,"Á":126,"Â":127,"Ã":128,"Ä":129,"Å":130,"Æ":131,"Ç":132,"È":133,"É":134,"Ê":135,"Ë":136,"Ì":137,"Í":138,"Î":139,"Ï":140,"Ð":141,"Ñ":142,"Ò":143,"Ó":144,"Ô":145,"Õ":146,"Ö":147,"×":148,"Ø":149,"Ù":150,"Ú":151,"Û":152,"Ü":153,"Ý":154,"Þ":155,"ß":156,"à":157,"á":158,"â":159,"ã":160,"ä":161,"å":162,"æ":163,"ç":164,"è":165,"é":166,"ê":167,"ë":168,"ì":169,"í":170,"î":171,"ï":172,"ð":173,"ñ":174,"ò":175,"ó":176,"ô":177,"õ":178,"ö":179,"÷":180,"ø":181,"ù":182,"ú":183,"û":184,"ü":185,"ý":186,"þ":187,"ÿ":188,"Ā":189,"ā":190,"Ă":191,"ă":192,"Ą":193,"ą":194,"Ć":195,"ć":196,"Ĉ":197,"ĉ":198,"Ċ":199,"ċ":200,"Č":201,"č":202,"Ď":203,"ď":204,"Đ":205,"đ":206,"Ē":207,"ē":208,"Ĕ":209,"ĕ":210,"Ė":211,"ė":212,"Ę":213,"ę":214,"Ě":215,"ě":216,"Ĝ":217,"ĝ":218,"Ğ":219,"ğ":220,"Ġ":221,"ġ":222,"Ģ":223,"ģ":224,"Ĥ":225,"ĥ":226,"Ħ":227,"ħ":228,"Ĩ":229,"ĩ":230,"Ī":231,"ī":232,"Ĭ":233,"ĭ":234,"Į":235,"į":236,"İ":237,"ı":238,"Ĳ":239,"ĳ":240,"Ĵ":241,"ĵ":242,"Ķ":243,"ķ":244,"ĸ":245,"Ĺ":246,"ĺ":247,"Ļ":248,"ļ":249,"Ľ":250,"ľ":251,"Ŀ":252,"ŀ":253,"Ł":254,"ł":255,"Ń":256,"Ġt":257,"he":258,"Ġa":259,"Ġ,":260,"Ġs":261,"Ġw":262,"in":263,"Ġthe":264,"nd":265,"re":266,"Ġo":267,"Ġ.":268,"Ġh":269,"Ġb":270,"ou":271,"er":272,"Ġand":273,"Ġf":274,"ed":275,"it":276,"Ġm":277,"at":278,"Ġto":279,"Ġ'":280,"Ġc":281,"Ġhe":282,"ing":283,"is":284,"ll":285,"Ġd":286,"Ġl":287,"Ġth":288,"as":289,"en":290,"Ġn":291,"or":292,"ar":293,"Ġof":294,"an":295,"Ġp":296,"es":297,"Ġg":298,"on":299,"ad":300,"Ġin":301,"ow":302,"le":303,"Ġbe":304,"ld":305,"om":306,"ĠI":307,"ut":308,"id":309,"Ġy":310,"Ġwas":311,"ot":312,"``":313,"Ġ''":314,"gh":315,"im":316,"Ġyou":317,"ve":318,"Ġit":319,"ly":320,"ver":321,"Ġthat":322,"Ġe":323,"ay":324,"Ġon":325,"et":326,"se":327,"st":328,"Ġwh":329,"Ġher":330,"ic":331,"Ġfor":332,"Ġas":333,"Ġu":334,"ir":335,"ght":336,"Ġhis":337,"ac":338,"oo":339,"ith":340,"Ġha":341,"Ġhad":342,"Ġst":343,"Ġr":344,"Ġwith":345,"Ġwe":346,"Ġshe":347,"Ġsa":348,"ould":349,"Ġre":350,"ent":351,"ill":352,"her":353,"ke":354,"ĠM":355,"Ġhim":356,"ur":357,"Ġan":358,"The":359,"if":360,"am":361,"Ġnot":362,"Ġso":363,"ight":364,"Ġse":365,"al":366,"ch":367,"Ġ;":368,"ter":369,"Ġsh":370,"Ġat":371,"Ġk":372,"Ġis":373,"Ġdo":374,"Ġme":375,"ce":376,"'t":377,"ome":378,"Ġbut":379,"Ġall":380,"red":381,"Ġsaid":382,"all":383,"ri":384,"Ġ-":385,"Ġwhe":386,"Ġne":387,"ore":388,"Ġup":389,"Ġhave":390,"un":391,"ain":392,"il":393,"Ġthey":394,"Ġ!":395,"ĠS":396,"Ġ?":397,"ĠB":398,"itt":399,"pp":400,"ĠA":401,"ro":402,"very":403,"Ġli":404,"Ġ--":405,"ust":406,"Ġmy":407,"ĠP":408,"Ġsu":409,"ion":410,"el":411,"ked":412,"ess":413,"ard":414,"ind":415,"Ġkn":416,"Ġout":417,"Ġwere":418,"ood":419,"Ġfr":420,"ittle":421,"ul":422,"ĠW":423,"out":424,"Ġwould":425,"ell":426,"own":427,"ra":428,"ong":429,"Ġone":430,"Ġgo":431,"ant":432,"ast":433,"Ġthem":434,"He":435,"Ġwhen":436,"Ġch":437,"Ġsee":438,"Ġsp":439,"ry":440,"qu":441,"us":442,"ĠC":443,"Ġlittle":444,"Ġno":445,"ack":446,"est":447,"Ġde":448,"Ġif":449,"Ġj":450,"th":451,"ound":452,"ĠJ":453,"Ġwho":454,"lf":455,"Ġal":456,"ĠD":457,"ĠG":458,"Ġthere":459,"Ġ``":460,"Ġcould":461,"Ġby":462,"Ġab":463,"one":464,"ge":465,"Ġthis":466,"Ġfrom":467,"ĠF":468,"ie":469,"ich":470,"Ġman":471,"ĠT":472,"and":473,"ab":474,"Ġloo":475,"au":476,"Ġvery":477,"ame":478,"art":479,"Ġwor":480,"Ġdid":481,"Ġwill":482,"ough":483,"way":484,"Ġle":485,"hed":486,"ct":487,"Ġor":488,"Ġint":489,"king":490,"ake":491,"ace":492,"Ġbr":493,"ĠL":494,"ep":495,"ss":496,"Ġlike":497,"Ġwhich":498,"ite":499,"our":500,"Ġwhat":501,"ĠR":502,"Ġv":503,"self":504,"other":505,"Ġover":506,"ous":507,"Ġpl":508,"Ġany":509,"op":510,"Ġbo":511,"Ġare":512,"reat":513,"ered":514,"Ġfe":515,"um":516,"ck":517,"Ġqu":518,"Ġtheir":519,"ig":520,"Ġbeen":521,"Ġyour":522,"Ġtim":523,"ap":524,"ĠH":525,"But":526,"Ġro":527,"Ġold":528,"Ġabout":529,"Ġlo":530,"Ġaf":531,"Ġdown":532,"ought":533,"ers":534,"Ġknow":535,"ist":536,"Ġag":537,"Ġinto":538,"ĠO":539,"hing":540,"ide":541,"Ġ`":542,"ven":543,"ne":544,"ĠMr":545,"Ġex":546,"Ġpo":547,"Ġpr":548,"ĠN":549,"Ġtoo":550,"are":551,"Ġnever":552,"Ġtr":553,"ink":554,"ather":555,"nder":556,"ice":557,"ure":558,"Ġbl":559,"Ġtime":560,"Ġsome":561,"ried":562,"Ġcom":563,"ther":564,"Ġthan":565,"Ġun":566,"Ġcame":567,"It":568,"Ġam":569,"Ġgr":570,"Ġcon":571,"Ġgood":572,"Ġday":573,"hat":574,"Ġmore":575,"Ġlong":576,"ive":577,"ade":578,"Ġjust":579,"ate":580,"ull":581,"Ġwent":582,"ak":583,"ort":584,"ear":585,"urn":586,"fore":587,"ick":588,"Ġcan":589,"ved":590,"Ġcl":591,"ose":592,"dy":593,"Ġthen":594,"ree":595,"Ġnow":596,"Ġhand":597,"Ġsay":598,"And":599,"Ġfl":600,"ag":601,"Ġagain":602,"ful":603,"Ġmu":604,"Ġtw":605,"ild":606,"Ġback":607,"end":608,"Ġthing":609,"She":610,"Ġus":611,"em":612,"Ġco":613,"Ġpre":614,"pt":615,"ng":616,"Ġother":617,"Ġthought":618,"ine":619,"Ġbefore":620,"ile":621,"Ġar":622,"Ġaway":623,"orn":624,"Ġget":625,"Ġcome":626,"You":627,"ish":628,"ect":629,"Ġmuch":630,"Ġafter":631,"Ġhow":632,"Ġway":633,"Ġey":634,"Ġgreat":635,"wn":636,"Ġwhere":637,"led":638,"Ġfo":639,"Ġpe":640,"Ġmade":641,"Ġoff":642,"Ġmo":643,"Ġen":644,"Ġmust":645,"air":646,"li":647,"Ġevery":648,"ave":649,"Ġonly":650,"Ġsm":651,"ouse":652,"Ġ:":653,"Ġthink":654,"ble":655,"ue":656,"Ġthr":657,"ally":658,"ĠE":659,"irl":660,"ass":661,"Ġbeg":662,"ty":663,"Ġboy":664,"Ġdre":665,"ife":666,"Ġshould":667,"Ġwo":668,"iss":669,"hen":670,"Ġhead":671,"eter":672,"ang":673,"Ġhas":674,"nt":675,"Ġgl":676,"aid":677,"Ġsw":678,"ew":679,"Then":680,"ĠK":681,"Ġeyes":682,"Ġhome":683,"av":684,"ation":685,"Ġwat":686,"Ġwell":687,"able":688,"ened":689,"arm":690,"ies":691,"dd":692,"Ġlooked":693,"Ġtell":694,"ĠJo":695,"Ġeven":696,"Ġsc":697,"Ġsuch":698,"ft":699,"Ġke":700,"ious":701,"ance":702,"Ġdis":703,"ily":704,"ber":705,"Ġbec":706,"Ġgirl":707,"Ġfir":708,"Ġstr":709,"ook":710,"Ġwant":711,"Ġhere":712,"Ġever":713,"Ġhapp":714,"ince":715,"Ġhimself":716,"Ġsaw":717,"ady":718,"omet":719,"ire":720,"Ġbet":721,"Ġlet":722,"Ġchild":723,"ĠMrs":724,"Ġseem":725,"Ġgot":726,"ted":727,"Ġunder":728,"Ġlook":729,"Ġmake":730,"Ġtwo":731,"Ġlast":732,"ity":733,"ol":734,"Ġpro":735,"ach":736,"ark":737,"nne":738,"Ġupon":739,"Ġown":740,"Ġnight":741,"Ġyoung":742,"Ġgoing":743,"Ġhouse":744,"There":745,"Ġheart":746,"ows":747,"ĠPeter":748,"Ġmight":749,"age":750,"Ġput":751,"ise":752,"Ġknew":753,"Ġsomet":754,"ving":755,"ways":756,"Ġim":757,"Ġface":758,"Ġfirst":759,"Ġac":760,"Ġthrough":761,"ting":762,"Ġshall":763,"thing":764,"ause":765,"They":766,"Ġturn":767,"ip":768,"ff":769,"Ġrem":770,"Ġalways":771,"Ġfound":772,"ool":773,"pped":774,"Ġright":775,"Ġtold":776,"os":777,"sw":778,"my":779,"ared":780,"Ġwhile":781,"ves":782,"Ġour":783,"Ġtake":784,"ople":785,"aught":786,"Ġsat":787,"ath":788,"leas":789,"Ġbel":790,"Ġcall":791,"ren":792,"Ġlove":793,"per":794,"uck":795,"Ġmother":796,"Ġtook":797,"tain":798,"bo":799,"So":800,"Ġonce":801,"Ġtill":802,"ence":803,"Ġper":804,"Ġquite":805,"Ġthings":806,"Ġgre":807,"ward":808,"ount":809,"Ġrep":810,"ny":811,"Ġpeople":812,"Ġansw":813,"les":814,"ied":815,"ĠMar":816,"hes":817,"Ġear":818,"Ġstill":819,"Ġcr":820,"Ġyear":821,"When":822,"Ġheard":823,"Ġsoon":824,"ud":825,"Ġho":826,"Ġfind":827,"ness":828,"Ġnew":829,"riend":830,"Ġapp":831,"Ġword":832,"ory":833,"ĠAnne":834,"Ġset":835,"ĠCh":836,"Ġits":837,"Ġwom":838,"get":839,"Ġmar":840,"oy":841,"anc":842,"ail":843,"ment":844,"Ġnothing":845,"ord":846,"ling":847,"co":848,"Ġhard":849,"Ġpleas":850,"lp":851,"Ġbecause":852,"Ġfriend":853,"Ġdear":854,"less":855,"aut":856,"elt":857,"ully":858,"ched":859,"Ġlife":860,"Ġpart":861,"sh":862,"oth":863,"Ġfell":864,"ung":865,"Ġdoor":866,"unt":867,"Ġsomething":868,"Ġfeel":869,"ĠYou":870,"Ġhelp":871,"Ġlau":872,"Ġbegan":873,"Ġplace":874,"Ġhands":875,"Ġtal":876,"Ġgive":877,"Ġround":878,"ĠIt":879,"Ġop":880,"Ġthough":881,"xt":882,"aking":883,"cess":884,"Ġmay":885,"Ġseemed":886,"Ġbig":887,"Ġking":888,"Ġte":889,"Ġmany":890,"Ġfather":891,"ank":892,"Ġwr":893,"owed":894,"Ġad":895,"Ġexp":896,"ere":897,"Ġcare":898,"Ġwind":899,"Ġbetter":900,"Ġfelt":901,"Ġcour":902,"ons":903,"Ġvo":904,"Ġbeh":905,"Ġsure":906,"body":907,"Ġanother":908,"Ġmost":909,"Ġbeaut":910,"Ġwa":911,"igh":912,"Ġdone":913,"Ġhor":914,"Ġsl":915,"cl":916,"ĠY":917,"Ġkind":918,"gg":919,"Ġpoor":920,"ia":921,"fully":922,"een":923,"ever":924,"Ġmind":925,"ĠPr":926,"Ġleft":927,"Ġdes":928,"Ġca":929,"Ġcar":930,"Ġworld":931,"sp":932,"Ġenough":933,"Ġgave":934,"RB":935,"Ġkeep":936,"ĠSt":937,"ĠOh":938,"Ġwithout":939,"ott":940,"rand":941,"Ġpret":942,"Ġwater":943,"Ġwoman":944,"atter":945,"ĠWh":946,"ress":947,"ired":948,"Ġanswered":949,"Th":950,"Ġseen":951,"ost":952,"Ġbeing":953,"Ġche":954,"ning":955,"Un":956,"said":957,"Ġthose":958,"aw":959,"Ġherself":960,"Ġsun":961,"ub":962,"ret":963,"Ġthree":964,"ian":965,"Ġpass":966,"Ġsn":967,"ĠMiss":968,"ated":969,"Ġthese":970,"Ġsle":971,"me":972,"ross":973,"ks":974,"Ġret":975,"row":976,"Ġanything":977,"ary":978,"ĠTh":979,"Ġwal":980,"Ġcried":981,"Ġroom":982,"ished":983,"Ġcomp":984,"ĠHe":985,"Ġhop":986,"ump":987,"Ġtre":988,"ently":989,"ings":990,"Ġvoice":991,"oud":992,"Ġwhite":993,"Ġspe":994,"oot":995,"Ġbest":996,"ĠThe":997,"ĠBr":998,"Ġlooking":999,"act":1000,"Ġbelie":1001,"illa":1002,"In":1003,"Ġtry":1004,"Ġasked":1005,"Ġend":1006,"Ġfar":1007,"Ġsil":1008,"man":1009,"Ġmen":1010,"Ġrun":1011,"Ġgi":1012,"Ġmorn":1013,"Ġhear":1014,"Ġdel":1015,"ead":1016,"Ġyears":1017,"ĠAnd":1018,"Ġchildren":1019,"Ġsupp":1020,"Ġwork":1021,"iff":1022,"Ġnear":1023,"Ġyet":1024,"Ġnext":1025,"Ġmin":1026,"Ġgu":1027,"Ġgone":1028,"ĠWhat":1029,"Ġmorning":1030,"Ġimp":1031,"Ġcle":1032,"ions":1033,"Ġplay":1034,"Ġturned":1035,"Ġbehind":1036,"Ġmom":1037,"Ġbed":1038,"Ġcourse":1039,"Ġmoment":1040,"Ġrest":1041,"Ġind":1042,"Ġlight":1043,"ird":1044,"rave":1045,"Ġhalf":1046,"iful":1047,"Ġbre":1048,"Ġwonder":1049,"ither":1050,"ister":1051,"Ġeat":1052,"Ġwait":1053,"Ġlay":1054,"ens":1055,"ĠRed":1056,"Now":1057,"Ġmean":1058,"Ġbus":1059,"Ġarm":1060,"ĠUn":1061,"Ġstood":1062,"Ġsk":1063,"Ġdark":1064,"ign":1065,"Ġreally":1066,"here":1067,"Ġdr":1068,"At":1069,"iz":1070,"Ġeach":1071,"urp":1072,"Ġcont":1073,"atch":1074,"Ġfull":1075,"Ġdoes":1076,"Ġcur":1077,"Ġel":1078,"hn":1079,"app":1080,"Ġbit":1081,"Ġspo":1082,"ange":1083,"aps":1084,"ner":1085,"erry":1086,"Ġfoll":1087,"Ġcalled":1088,"ock":1089,"We":1090,"ĠNo":1091,"Ġhur":1092,"ĠKing":1093,"Ġbeautiful":1094,"bit":1095,"od":1096,"gether":1097,"Ġunt":1098,"arn":1099,"Ġswe":1100,"If":1101,"Ġalong":1102,"Ġrather":1103,"sel":1104,"Ġblack":1105,"Ġbro":1106,"aster":1107,"Ġreturn":1108,"Ġfair":1109,"Ġgold":1110,"dden":1111,"Ġamong":1112,"ertain":1113,"asked":1114,"As":1115,"att":1116,"cle":1117,"ale":1118,"int":1119,"fort":1120,"Ġser":1121,"illy":1122,"Ġside":1123,"Ġpretty":1124,"mer":1125,"Ġremem":1126,"incess":1127,"ah":1128,"ĠDo":1129,"Ġforg":1130,"Ġinst":1131,"Ġdra":1132,"Ġboth":1133,"ised":1134,"Ġent":1135,"lied":1136,"ĠOld":1137,"Ġtree":1138,"Ġob":1139,"Ġglad":1140,"Ġsame":1141,"eed":1142,"ĠDan":1143,"reen":1144,"ible":1145,"Ġair":1146,"Ġwife":1147,"amp":1148,"Ġfew":1149,"Ġred":1150,"Ġboys":1151,"Ġspr":1152,"Ġaw":1153,"Ġran":1154,"iness":1155,"iet":1156,"Ġfore":1157,"ĠBut":1158,"und":1159,"Ġhappy":1160,"iver":1161,"Ġneed":1162,"most":1163,"ĠWell":1164,"idd":1165,"Ġsince":1166,"Ġbelieve":1167,"Ġsto":1168,"ĠJohn":1169,"ox":1170,"Ġbrought":1171,"Ġwood":1172,"Ġgirls":1173,"ict":1174,"ĠQ":1175,"Ġcons":1176,"Ġdays":1177,"az":1178,"land":1179,"ĠGreen":1180,"ix":1181,"up":1182,"Ġmatter":1183,"Ġsound":1184,"That":1185,"Ġlaugh":1186,"ec":1187,"ĠV":1188,"ult":1189,"Ġuntil":1190,"itting":1191,"Ġopen":1192,"Ġdream":1193,"Ġdro":1194,"Ġsent":1195,"owing":1196,"Ġsweet":1197,"Ġcoming":1198,"Ġhair":1199,"Ġstre":1200,"Ġpres":1201,"ER":1202,"ĠAunt":1203,"Ġreplied":1204,"raid":1205,"ĠAl":1206,"ower":1207,"Ġsudden":1208,"aughter":1209,"This":1210,"ond":1211,"ek":1212,"Ġtrou":1213,"side":1214,"Ġtogether":1215,"Ġfire":1216,"Ġwhole":1217,"Ġstart":1218,"gs":1219,"Ġdist":1220,"Ġsmall":1221,"by":1222,"Ġsleep":1223,"old":1224,"eth":1225,"Ġdress":1226,"Ġminut":1227,"Ġjo":1228,"ery":1229,"Ġcount":1230,"Ġevening":1231,"Ġem":1232,"Ġprom":1233,"Ġname":1234,"Ġkept":1235,"Ġsays":1236,"haps":1237,"Mr":1238,"Ġter":1239,"Ġwhy":1240,"ĠFox":1241,"bed":1242,"Ġwish":1243,"Ġcry":1244,"day":1245,"Ġwanted":1246,"Ġelse":1247,"aken":1248,"Ġfeet":1249,"Ġwords":1250,"Ġbad":1251,"Ġres":1252,"Ġalmost":1253,"ĠYes":1254,"outh":1255,"ĠGr":1256,"Ġcertain":1257,"Ġsea":1258,"Ġalone":1259,"Ġread":1260,"ash":1261,"Ġdead":1262,"Ġacc":1263,"ey":1264,"Ġagainst":1265,"Ġmyself":1266,"Ġstand":1267,"illed":1268,"ures":1269,"Ġstory":1270,"oon":1271,"ib":1272,"Ġbrother":1273,"Ġthin":1274,"Ġbu":1275,"Ġafraid":1276,"Ġlive":1277,"Ġlist":1278,"Ġfall":1279,"Ġsor":1280,"Ġatt":1281,"ĠTom":1282,"Ġlad":1283,"ane":1284,"Ġhour":1285,"Ġstay":1286,"Ġreal":1287,"Ġgrew":1288,"so":1289,"ief":1290,"ghed":1291,"ars":1292,"Ġuse":1293,"ĠReddy":1294,"Ġson":1295,"Ġnor":1296,"ged":1297,"Ġsight":1298,"ins":1299,"Ġacross":1300,"Ġlady":1301,"foot":1302,"Ġhorse":1303,"ors":1304,"Ġste":1305,"iled":1306,"ier":1307,"Ġfun":1308,"Ġhope":1309,"ift":1310,"Ġsoft":1311,"Ġang":1312,"ined":1313,"ken":1314,"ĠJim":1315,"Ġbring":1316,"ps":1317,"Ġwatch":1318,"Ġsch":1319,"ached":1320,"What":1321,"Ġeas":1322,"ĠWe":1323,"ĠThat":1324,"anger":1325,"oney":1326,"Ġord":1327,"Ġfam":1328,"Ġask":1329,"Ġtried":1330,"Ġunderst":1331,"Ġprince":1332,"fect":1333,"Ġhung":1334,"Ġgent":1335,"oss":1336,"Ġsing":1337,"Ġbright":1338,"Ġused":1339,"Ġaround":1340,"ield":1341,"Ġfast":1342,"father":1343,"Ġlost":1344,"Ġye":1345,"Ġcap":1346,"abbit":1347,"Ġstra":1348,"iling":1349,"Ġready":1350,"cept":1351,"ĠBl":1352,"Ġlaughed":1353,"ten":1354,"Ġblue":1355,"Ġcomfort":1356,"akes":1357,"Ġleave":1358,"LRB":1359,"RRB":1360,"Wh":1361,"ob":1362,"randfather":1363,"uc":1364,"its":1365,"Ġhill":1366,"Ġbook":1367,"imes":1368,"umb":1369,"Ġfear":1370,"Ġmon":1371,"unk":1372,"Ġhappened":1373,"Ġadd":1374,"orm":1375,"Ġsitting":1376,"selves":1377,"Ġpal":1378,"vent":1379,"cried":1380,"ĠLittle":1381,"Ġhold":1382,"Ġtalk":1383,"Ġdelight":1384,"ween":1385,"Ġnice":1386,"Ġsister":1387,"Ġgentle":1388,"Ġoften":1389,"arl":1390,"No":1391,"rew":1392,"For":1393,"Ġsurp":1394,"Ġsort":1395,"Ġtimes":1396,"armer":1397,"Ġbes":1398,"lly":1399,"Ġdiff":1400,"Ġeverything":1401,"lew":1402,"let":1403,"fe":1404,"Ġbird":1405,"ph":1406,"ense":1407,"Ġsaying":1408,"Ġlived":1409,"Ġwindow":1410,"Ġposs":1411,"Ġfine":1412,"ying":1413,"Ġsurpr":1414,"Ġfoot":1415,"Ġcorn":1416,"Ġletter":1417,"Ġfin":1418,"Ġpers":1419,"ĠBilly":1420,"Ġleast":1421,"Ġfriends":1422,"ited":1423,"Ġbetween":1424,"Ġsum":1425,"Ġgreen":1426,"ĠBrown":1427,"Ġwin":1428,"imp":1429,"Ġwhom":1430,"be":1431,"ont":1432,"rog":1433,"spect":1434,"Ġcold":1435,"ove":1436,"Ġcut":1437,"Ġschool":1438,"Ġhun":1439,"owers":1440,"..":1441,"ĠRabbit":1442,"Ġindeed":1443,"Ġdec":1444,"Ġvis":1445,"Ġhaving":1446,"uff":1447,"Ġquiet":1448,"On":1449,"Ġdeep":1450,"Ġcaught":1451,"ĠJack":1452,"ained":1453,"ĠIf":1454,"used":1455,"Ġpat":1456,"oc":1457,"Ġfright":1458,"Ġstep":1459,"ately":1460,"Ġgard":1461,"icked":1462,"Ġref":1463,"iv":1464,"ats":1465,"Ġdaughter":1466,"erest":1467,"Ġconf":1468,"Ġhigh":1469,"ering":1470,"Ġquick":1471,"bert":1472,"Ġtear":1473,"Ġsad":1474,"ĠMother":1475,"ee":1476,"Ġbreat":1477,"oul":1478,"ses":1479,"Ġtrue":1480,"Ġpassed":1481,"Ġdou":1482,"Ġmoney":1483,"Ġland":1484,"Ġtired":1485,"Ġheld":1486,"Ġrel":1487,"Ġfa":1488,"Ġmis":1489,"Ġ...":1490,"ason":1491,"Ġground":1492,"wards":1493,"Ġes":1494,"Ġstrong":1495,"ans":1496,"uth":1497,"Ġdread":1498,"Ġhon":1499,"Ġtail":1500,"Ġalso":1501,"eg":1502,"ĠSh":1503,"ĠDick":1504,"Ġwild":1505,"Ġbab":1506,"SB":1507,"ĠIs":1508,"vered":1509,"Ġmouth":1510,"Ġtaken":1511,"Ġremember":1512,"Ġcast":1513,"Ġsuppose":1514,"aces":1515,"Ġspeak":1516,"Ġroad":1517,"ush":1518,"ided":1519,"ial":1520,"Ġwhis":1521,"Ġspoke":1522,"Ġmet":1523,"ote":1524,"Ġdin":1525,"Ġreached":1526,"Ġmeet":1527,"aim":1528,"Ġbur":1529,"Ġlearn":1530,"the":1531,"His":1532,"Ġtrouble":1533,"How":1534,"ured":1535,"Ġfour":1536,"ides":1537,"ĠNow":1538,"Ġless":1539,"Ġreturned":1540,"ĠMarilla":1541,"arge":1542,"Ġleav":1543,"Ġexc":1544,"Ġtable":1545,"Ġgarden":1546,"mon":1547,"Ġinterest":1548,"ĠPrince":1549,"airs":1550,"Ġwalked":1551,"amed":1552,"adow":1553,"Do":1554,"fter":1555,"Ġthinking":1556,"oor":1557,"ater":1558,"ase":1559,"eared":1560,"Ġfly":1561,"Ġexpect":1562,"avy":1563,"Ġfeeling":1564,"arp":1565,"ĠFrog":1566,"Ġrose":1567,"enty":1568,"Ġshow":1569,"Ġfool":1570,"Ġclose":1571,"All":1572,"Ġothers":1573,"Ġforget":1574,"Ġmus":1575,"ught":1576,"Ġbegin":1577,"osed":1578,"Ġcou":1579,"ĠFr":1580,"Ġgetting":1581,"Ġpalace":1582,"ots":1583,"Ġgiven":1584,"Ġpain":1585,"Ġloved":1586,"Ġtrees":1587,"Ġsuddenly":1588,"Ġfre":1589,"Ġmeant":1590,"bt":1591,"Ġmist":1592,"ĠSp":1593,"ped":1594,"mb":1595,"rible":1596,"Ġdoing":1597,"ĠShe":1598,"ably":1599,"ushed":1600,"Ġadm":1601,"HA":1602,"Ġago":1603,"night":1604,"Ġbear":1605,"iously":1606,"ask":1607,"Ġpie":1608,"ets":1609,"Ġhum":1610,"Ġeye":1611,"ger":1612,"lend":1613,"Ġshort":1614,"als":1615,"Ġstraight":1616,"joy":1617,"Ġfellow":1618,"Ġmil":1619,"Ġcountry":1620,"Ġquest":1621,"Ġcre":1622,"Ġsafe":1623,"pl":1624,"Ġtou":1625,"Ġunderstand":1626,"Ġpast":1627,"ĠBen":1628,"Ġstrange":1629,"ney":1630,"Ġnat":1631,"Ġthemselves":1632,"Ġspir":1633,"ĠThere":1634,"antly":1635,"ĠWhy":1636,"Ġmaking":1637,"Ġsoul":1638,"Ġtrying":1639,"Ġsnow":1640,"Ġwall":1641,"urch":1642,"Ġbar":1643,"ingly":1644,"Ġlonger":1645,"Oh":1646,"Ġperhaps":1647,"anny":1648,"ctor":1649,"TER":1650,"Ġdri":1651,"Ġwarm":1652,"Ġprincess":1653,"Ġreg":1654,"Ġdeath":1655,"ces":1656,"Ġsec":1657,"ents":1658,"Ġsplend":1659,"ular":1660,"ĠFarmer":1661,"Ġenjoy":1662,"Ġstopped":1663,"Ġarms":1664,"ience":1665,"ru":1666,"Ġhast":1667,"ual":1668,"Ġjoy":1669,"Ġbreak":1670,"Ġthou":1671,"Ġdinner":1672,"Ġyouth":1673,"Ġcreat":1674,"Ġmarried":1675,"med":1676,"ĠQue":1677,"Ġide":1678,"ls":1679,"ned":1680,"Ġfollowed":1681,"Ġflowers":1682,"ha":1683,"ones":1684,"ĠMead":1685,"Ġyourself":1686,"cond":1687,"Ġsqu":1688,"Ġflew":1689,"Ġwhose":1690,"Ġdisapp":1691,"Ġearth":1692,"Ġtown":1693,"ating":1694,"men":1695,"ĠMan":1696,"ime":1697,"Ġbreath":1698,"Ġhus":1699,"Ġsli":1700,"itc":1701,"Ġrock":1702,"Ġguess":1703,"ug":1704,"Ġlovely":1705,"One":1706,"ene":1707,"ĠFore":1708,"ĠSam":1709,"Ġjump":1710,"ĠHow":1711,"cc":1712,"Ġliked":1713,"ĠGrandfather":1714,"ĠBlack":1715,"Ġsharp":1716,"Ġmaid":1717,"Ġsit":1718,"Ġcompan":1719,"Ġtem":1720,"Ġmer":1721,"Ġcross":1722,"Ġminute":1723,"Ġtop":1724,"ĠForest":1725,"ĠUncle":1726,"where":1727,"Ġlarge":1728,"ĠQueen":1729,"Ġgen":1730,"rie":1731,"Ġfamily":1732,"ates":1733,"Ġsecond":1734,"Ġpull":1735,"Ġsometimes":1736,"Ġmarry":1737,"Ġopened":1738,"Mrs":1739,"Ġfur":1740,"ĠMy":1741,"Ġcatch":1742,"pping":1743,"ĠPrincess":1744,"Ġinv":1745,"Ġslow":1746,"Ġable":1747,"band":1748,"Ġpray":1749,"Ġtears":1750,"aur":1751,"Ġpleasant":1752,"Ġcarry":1753,"After":1754,"she":1755,"ison":1756,"usan":1757,"ett":1758,"Ġmaster":1759,"Ġstarted":1760,"ject":1761,"rist":1762,"ations":1763,"res":1764,"Ġmag":1765,"Ġdrew":1766,"Ġtri":1767,"aint":1768,"ĠAh":1769,"Anne":1770,"ĠNat":1771,"Her":1772,"Ġdied":1773,"ually":1774,"ster":1775,"Ġdeal":1776,"Ġtall":1777,"Ġdog":1778,"Ġcol":1779,"Ġclear":1780,"ced":1781,"Ġill":1782,"iana":1783,"Ġact":1784,"ames":1785,"gr":1786,"Ġought":1787,"Ġgolden":1788,"Ġperfect":1789,"Ġaff":1790,"Ġlow":1791,"Ġshore":1792,"ĠSir":1793,"ĠRose":1794,"Ġhusband":1795,"Ġlaid":1796,"elia":1797,"ants":1798,"head":1799,"light":1800,"Ġexcept":1801,"Ġsummer":1802,"Ġdoubt":1803,"Ġsmile":1804,"isf":1805,"ilt":1806,"Ġnose":1807,"Ġspring":1808,"Ġperson":1809,"Ġgrave":1810,"Ġsplendid":1811,"Ġknown":1812,"br":1813,"cer":1814,"ready":1815,"Ġproud":1816,"Ġcomes":1817,"anged":1818,"Ġadded":1819,"ued":1820,"Ġweek":1821,"Ġserv":1822,"ĠTo":1823,"Ġmount":1824,"noon":1825,"Ġkiss":1826,"Ġcarried":1827,"Ġcorner":1828,"els":1829,"mor":1830,"Ġstone":1831,"Ġanx":1832,"Ġship":1833,"Ġanswer":1834,"Ġfight":1835,"Ġchurch":1836,"Ġabove":1837,"Ġtaking":1838,"Ġpict":1839,"ĠMary":1840,"Ġcertainly":1841,"Ġdep":1842,"Ġsecret":1843,"Ġled":1844,"Ġlisten":1845,"HE":1846,"ude":1847,"Ġed":1848,"leep":1849,"ĠWill":1850,"claim":1851,"Ġev":1852,"Ġbeside":1853,"Ġroll":1854,"Ġfol":1855,"Ġsorry":1856,"ellow":1857,"Ġgrass":1858,"Ġadv":1859,"Ġbaby":1860,"Ġmoon":1861,"Ġbrown":1862,"inted":1863,"ightfoot":1864,"Ġalready":1865,"Ġterrible":1866,"how":1867,"ilbert":1868,"Ġve":1869,"Ġfat":1870,"eer":1871,"ended":1872,"ancy":1873,"Ġwear":1874,"Ġhardly":1875,"undred":1876,"Ġgrow":1877,"Ġunc":1878,"ented":1879,"Ġshut":1880,"Ġwalk":1881,"Ġidea":1882,"rel":1883,"Ġfro":1884,"Ġsatisf":1885,"Ġtra":1886,"Ġhundred":1887,"Ġriver":1888,"Ġsend":1889,"Ġlegs":1890,"aven":1891,"Ġhat":1892,"Ġafternoon":1893,"Ġinstead":1894,"Ġchance":1895,"Ġwar":1896,"read":1897,"Ġfood":1898,"ient":1899,"Ġexpress":1900,"Ġneigh":1901,"HAP":1902,"Ġmine":1903,"Ġshook":1904,"Ġwatched":1905,"HAPTER":1906,"Ġmusic":1907,"Ġsub":1908,"Ġeither":1909,"Ġhowever":1910,"Ġpap":1911,"iding":1912,"Ġasleep":1913,"Ġburn":1914,"Ġfield":1915,"Ġsuc":1916,"Ġ*":1917,"ĠEng":1918,"Ġnone":1919,"ĠChrist":1920,"Ġdraw":1921,"use":1922,"house":1923,"Ġbusiness":1924,"Ġneighb":1925,"Ġplain":1926,"Ġbecame":1927,"ĠWhite":1928,"zz":1929,"oes":1930,"Ġfree":1931,"Ġocc":1932,"ley":1933,"Ġimag":1934,"tered":1935,"aced":1936,"Ġknows":1937,"ized":1938,"ĠAmy":1939,"ape":1940,"Ġhurt":1941,"pered":1942,"Ġneck":1943,"Ġtruth":1944,"Ġinf":1945,"Ġwhether":1946,"Ġnearly":1947,"Ġforest":1948,"Ġmiss":1949,"ara":1950,"Ġforth":1951,"Peter":1952,"With":1953,"iddle":1954,"Of":1955,"cious":1956,"Ġfig":1957,"Ġfrightened":1958,"sy":1959,"Ġsix":1960,"Ġass":1961,"Ġstanding":1962,"de":1963,"ĠBe":1964,"Ġplease":1965,"Ġten":1966,"son":1967,"ition":1968,"Ġpri":1969,"Ġsign":1970,"itchen":1971,"Ġir":1972,"Ġappeared":1973,"CHAPTER":1974,"ĠGod":1975,"ugg":1976,"Ġwaiting":1977,"ĠSammy":1978,"Ġsimp":1979,"Ġspite":1980,"Ġthee":1981,"Ġdreadful":1982,"irt":1983,"Ġtalking":1984,"Ġfact":1985,"ĠSusan":1986,"Ġart":1987,"Ġwonderful":1988,"Ġmonth":1989,"ches":1990,"edd":1991,"Ġcoll":1992,"Every":1993,"Ġeverybody":1994,"Ġnobody":1995,"Ġclim":1996,"ĠQu":1997,"Ġeff":1998,"Ġinter":1999,"Ġeag":2000,"Ġdoctor":2001,"aurie":2002,"ma":2003,"eng":2004,"Ġreco":2005,"Ġwinter":2006,"To":2007,"Ġwis":2008,"Well":2009,"Ġdie":2010,"ries":2011,"eks":2012,"ining":2013,"Ġboat":2014,"otten":2015,"ĠJimmy":2016,"aul":2017,"mand":2018,"irect":2019,"Ġkitchen":2020,"Ġcontin":2021,"itch":2022,"Ġqueen":2023,"oom":2024,"Ġtone":2025,"Ġcheer":2026,"ived":2027,"Ġlate":2028,"Ġsever":2029,"Ġpleased":2030,"Ġfing":2031,"Ġpale":2032,"Ġhall":2033,"claimed":2034,"Ġrunning":2035,"Ġdisco":2036,"Ġfilled":2037,"Ġdanger":2038,"ĠLightfoot":2039,"Ġsur":2040,"Ġegg":2041,"Ġwomen":2042,"Ġfront":2043,"Ġexpl":2044,"Ġforgot":2045,"Ġslowly":2046,"lect":2047,"Ġstar":2048,"endy":2049,"Ġnews":2050,"ĠGranny":2051,"iam":2052,"Ġsir":2053,"Ġhot":2054,"Ġcat":2055,"My":2056,"bered":2057,"ical":2058,"Here":2059,"ina":2060,"Ġminutes":2061,"arer":2062,"II":2063,"Ġfav":2064,"anced":2065,"Ġpay":2066,"Ġreason":2067,"Ġpol":2068,"Ġthank":2069,"Ġwrong":2070,"Ġyes":2071,"Ġclot":2072,"Ġbitter":2073,"og":2074,"Ġrich":2075,"erent":2076,"Ġthick":2077,"Ġseveral":2078,"ĠKim":2079,"Ġsword":2080,"Ġdirect":2081,"oof":2082,"ror":2083,"Ġgener":2084,"Ġbott":2085,"ains":2086,"ĠSm":2087,"rence":2088,"Ġbusy":2089,"ĠDiana":2090,"Ġsmo":2091,"Ġbound":2092,"ton":2093,"ze":2094,"Ġcal":2095,"Ġbody":2096,"ĠMeg":2097,"rat":2098,"Ġtowards":2099,"Ġins":2100,"room":2101,"Ġesc":2102,"morrow":2103,"ĠGilbert":2104,"Ġneither":2105,"Ġbroken":2106,"Ġdisc":2107,"Ġsett":2108,"ĠFel":2109,"Ġears":2110,"to":2111,"addy":2112,"ĠJerry":2113,"Ġbroke":2114,"Ġforgotten":2115,"Ġfish":2116,"ann":2117,"Ġabs":2118,"Ġhandsome":2119,"Ġtender":2120,"Ġtrave":2121,"Ġsick":2122,"Ġliving":2123,"Ġsky":2124,"Ġearly":2125,"idden":2126,"Ġlaughing":2127,"ute":2128,"ĠNan":2129,"Ġdesp":2130,"Ġvisit":2131,"Ġap":2132,"Ġgrown":2133,"vers":2134,"Ġthrew":2135,"une":2136,"ert":2137,"ope":2138,"Ġsurprise":2139,"Ġcra":2140,"wh":2141,"Ġones":2142,"Ġvill":2143,"Ġsilver":2144,"ser":2145,"Ġdev":2146,"Ġsuff":2147,"ĠNot":2148,"Ġfort":2149,"Ġwand":2150,"Ġhar":2151,"Ġmakes":2152,"ora":2153,"Ġworth":2154,"Ġbank":2155,"Ġstranger":2156,"ais":2157,"Ġstop":2158,"ĠGood":2159,"Ġangry":2160,"Why":2161,"Ġma":2162,"ĠJoe":2163,"Ġprop":2164,"usk":2165,"Ġfail":2166,"ĠAll":2167,"Ġfond":2168,"Ġfive":2169,"Ġshadow":2170,"Ġwithin":2171,"ention":2172,"ym":2173,"Ġrec":2174,"ousin":2175,"Ġsmiled":2176,"Ġtong":2177,"Ġbeauty":2178,"Ġdecl":2179,"Ġbirds":2180,"Ġspirit":2181,"Al":2182,"Ġbrave":2183,"owd":2184,"Ġchange":2185,"owser":2186,"ĠUnc":2187,"Ġrespect":2188,"Ġquestion":2189,"Ġremembered":2190,"ashion":2191,"Ġpath":2192,"ices":2193,"Ġtor":2194,"ching":2195,"Ġchar":2196,"Ġpleasure":2197,"Ġlam":2198,"Ġash":2199,"Ġcreature":2200,"Ġpromised":2201,"uss":2202,"Ġconsid":2203,"Ġhang":2204,"Ġgrand":2205,"aded":2206,"Ġpeace":2207,"Ġfoolish":2208,"Ġthy":2209,"Ġdropped":2210,"idge":2211,"hered":2212,"ĠCl":2213,"Ġworse":2214,"Ġwatching":2215,"Ġeasy":2216,"Ġfaith":2217,"Not":2218,"Ġpurp":2219,"Ġkill":2220,"Ġfolks":2221,"Ġlif":2222,"alter":2223,"ĠLaurie":2224,"llow":2225,"Ġdecided":2226,"Ġyellow":2227,"urs":2228,"Ġappro":2229,"ĠChuck":2230,"ern":2231,"ĠDr":2232,"Ġbox":2233,"Ġhungry":2234,"Ġdifferent":2235,"Ġseeing":2236,"ĠWendy":2237,"Ġplan":2238,"hew":2239,"Ġcastle":2240,"ĠThey":2241,"utter":2242,"well":2243,"Ġloud":2244,"Ġshout":2245,"Ġheads":2246,"ĠBlacky":2247,"bled":2248,"ĠThen":2249,"iced":2250,"Ġfairy":2251,"ĠAlice":2252,"Ġinside":2253,"Ġclothes":2254,"Ġeager":2255,"Ġorder":2256,"Ġgentleman":2257,"anch":2258,"Ġrece":2259,"ĠSk":2260,"Ġarri":2261,"Ġtalked":2262,"Ġharm":2263,"ĠMerry":2264,"ously":2265,"alley":2266,"Ġwise":2267,"Ġgate":2268,"Ġscar":2269,"key":2270,"Ġfresh":2271,"Ġlying":2272,"Ġpower":2273,"Ġblood":2274,"Ġwide":2275,"erhaps":2276,"ork":2277,"Ġgay":2278,"Ġwhispered":2279,"uring":2280,"Ġseems":2281,"ĠEll":2282,"Ġhen":2283,"come":2284,"lo":2285,"Ġcharm":2286,"Ġmad":2287,"Ġforward":2288,"rib":2289,"ĠGirl":2290,"arted":2291,"Ġrain":2292,"awn":2293,"icity":2294,"ousand":2295,"Ġleaves":2296,"Ġnest":2297,"ache":2298,"Ġring":2299,"Ġlearned":2300,"orth":2301,"ceed":2302,"ĠSc":2303,"ĠBab":2304,"Ġstri":2305,"Ġhurry":2306,"ially":2307,"zen":2308,"ĠJohnny":2309,"Ġlips":2310,"Ġfloor":2311,"Ġstruck":2312,"oun":2313,"Ġprep":2314,"Ġleng":2315,"Ġshowed":2316,"though":2317,"Ġpock":2318,"Ġbecome":2319,"LSB":2320,"Ġmiddle":2321,"Ġappear":2322,"iting":2323,"chief":2324,"Ġpoint":2325,"RSB":2326,"ipp":2327,"Ġheavy":2328,"aged":2329,"Ġlistened":2330,"ines":2331,"itten":2332,"ages":2333,"St":2334,"dom":2335,"ances":2336,"Ġwaited":2337,"ĠMeadows":2338,"mas":2339,"arr":2340,"ĠSo":2341,"Ġhappen":2342,"Ġproper":2343,"Ġquickly":2344,"udd":2345,"Ġthousand":2346,"Ġsave":2347,"ĠLy":2348,"Ġwished":2349,"ĠRo":2350,"Ġext":2351,"Ġbask":2352,"ony":2353,"Ġquar":2354,"aptain":2355,"Ġbrothers":2356,"io":2357,"Ġgiant":2358,"Just":2359,"eddy":2360,"uttered":2361,"ĠPh":2362,"Ġmanner":2363,"Ġtea":2364,"Ġtwenty":2365,"By":2366,"fast":2367,"Ġsand":2368,"ric":2369,"Ġwedd":2370,"Ġkilled":2371,"Ġlength":2372,"Ġspot":2373,"Ġhide":2374,"ĠSkunk":2375,"Ġclean":2376,"uzz":2377,"Ġthird":2378,"Ġawful":2379,"Ġpromise":2380,"Ġgaz":2381,"Ġitself":2382,"Ġeld":2383,"riage":2384,"itted":2385,"Ġcoat":2386,"ĠBha":2387,"ards":2388,"Ġsoftly":2389,"Ġdare":2390,"Ġpossible":2391,"iny":2392,"Ġstick":2393,"ĠFair":2394,"Ġsteps":2395,"ĠLady":2396,"Ġanyone":2397,"pty":2398,"Ġbooks":2399,"Ġlater":2400,"Ġcrying":2401,"bing":2402,"Ġusual":2403,"Ġlead":2404,"Ġmur":2405,"iment":2406,"ĠStory":2407,"ĠX":2408,"Ġoutside":2409,"Ġhunter":2410,"ax":2411,"ased":2412,"Ġlives":2413,"like":2414,"Be":2415,"af":2416,"Ġdrink":2417,"Ġhurried":2418,"Ġbeginning":2419,"Ġgro":2420,"Ġalthough":2421,"Ġpresent":2422,"Ġsurprised":2423,"nde":2424,"Ġrub":2425,"ees":2426,"Ġbey":2427,"ĠCharl":2428,"Yes":2429,"Ġjour":2430,"ashed":2431,"eping":2432,"Ġsorrow":2433,"Ġdism":2434,"Ġlooks":2435,"ĠCar":2436,"Ġlean":2437,"ĠAlan":2438,"Ġfigure":2439,"Ġcloud":2440,"Ġbeyond":2441,"essed":2442,"Ġparty":2443,"Ġast":2444,"Ġbread":2445,"Ġwond":2446,"kes":2447,"ishing":2448,"Ġsold":2449,"Ġdoll":2450,"Ġlie":2451,"ĠPool":2452,"Ġsmart":2453,"Ġshoulder":2454,"ĠBhaer":2455,"aith":2456,"ĠAn":2457,"ple":2458,"isted":2459,"Ġexact":2460,"Ġgray":2461,"Ġdut":2462,"Ġhours":2463,"Ġsail":2464,"Ġmere":2465,"Ġbelow":2466,"Ġexpected":2467,"Ġpair":2468,"ident":2469,"Ġsal":2470,"appy":2471,"Ġtongue":2472,"ĠBowser":2473,"Ġsilence":2474,"Ġwedding":2475,"Ġseven":2476,"Ġchanged":2477,"Ġanybody":2478,"lish":2479,"ighed":2480,"Ġpartic":2481,"Ġminister":2482,"Ġpiece":2483,"Ġperfectly":2484,"Ġtrust":2485,"Ġbeat":2486,"ĠIn":2487,"Ġleaving":2488,"Jo":2489,"ĠPl":2490,"Ġvillage":2491,"Ġpen":2492,"Ġearn":2493,"Ġhorses":2494,"Some":2495,"ically":2496,"Ġqueer":2497,"Ġdust":2498,"--":2499,"lic":2500,"Ġinn":2501,"ize":2502,"ĠSmiling":2503,"Ġtast":2504,"aped":2505,"hood":2506,"ĠPaul":2507,"ship":2508,"erer":2509,"aws":2510,"Ġfinished":2511,"ging":2512,"Ġoh":2513,"Ġpity":2514,"Ġpicture":2515,"Ġfancy":2516,"Ġwrite":2517,"Ġcourt":2518,"Ġinc":2519,"ĠJay":2520,"Ġmeans":2521,"Ġfollow":2522,"Ġentered":2523,"over":2524,"isk":2525,"alth":2526,"Ġmagic":2527,"ĠThis":2528,"ĠDanny":2529,"ĠJane":2530,"oured":2531,"Ġbeast":2532,"Ġself":2533,"apped":2534,"Ġmid":2535,"ĠAr":2536,"ĠAle":2537,"Ġdelic":2538,"iest":2539,"Ġcow":2540,"ising":2541,"Ġclever":2542,"ler":2543,"ĠRilla":2544,"Su":2545,"Ġsong":2546,"Ġjourney":2547,"orge":2548,"aves":2549,"Ġsupper":2550,"Ġwel":2551,"ĠPo":2552,"Ġanxious":2553,"ĠChristmas":2554,"adows":2555,"ĠWhen":2556,"ĠOli":2557,"Ġstreng":2558,"Ġsense":2559,"Ġlone":2560,"rage":2561,"Ġopp":2562,"oose":2563,"ĠCome":2564,"Ġball":2565,"itude":2566,"vel":2567,"Ġmove":2568,"retched":2569,"Ġvan":2570,"Ġturning":2571,"shine":2572,"Ġesp":2573,"Ġbreakfast":2574,"Ġpulled":2575,"Ġedge":2576,"Ġpaper":2577,"ooking":2578,"Ġresol":2579,"ĠCorn":2580,"ĠTHE":2581,"Ġtreas":2582,"Ġuncle":2583,"Ġarr":2584,"ĠEm":2585,"Ġladies":2586,"Ġcompany":2587,"Ġcir":2588,"ested":2589,"ĠLet":2590,"Ġug":2591,"ron":2592,"set":2593,"Ġsigh":2594,"Ġbow":2595,"ĠMatt":2596,"ĠBly":2597,"Ġgoes":2598,"unday":2599,"iant":2600,"Ġele":2601,"Ġsuit":2602,"Ġstro":2603,"ific":2604,"ĠDe":2605,"Ġexactly":2606,"udy":2607,"Ġhollow":2608,"Ġhunting":2609,"Ġsole":2610,"Ġshr":2611,"ĠFather":2612,"bles":2613,"cked":2614,"Ġsmiling":2615,"ĠLynde":2616,"Ġparticular":2617,"irst":2618,"ancing":2619,"Ġcontinued":2620,"Ġlot":2621,"ĠWalter":2622,"attle":2623,"Ġbasket":2624,"Ġbene":2625,"Ġbride":2626,"Ġcompl":2627,"Ġbroad":2628,"Ġmess":2629,"ĠSunday":2630,"Ġtelling":2631,"Ġlonely":2632,"Ġborn":2633,"stairs":2634,"cely":2635,"what":2636,"Ġsear":2637,"Ġglass":2638,"Ġespec":2639,"OU":2640,"Ġbir":2641,"ĠGl":2642,"Ġbelong":2643,"rig":2644,"Ġlikely":2645,"Ġspread":2646,"ĠWho":2647,"Ġplayed":2648,"mother":2649,"Ġfarm":2650,"Ġdry":2651,"Ġadvent":2652,"Ġdressed":2653,"Ġsens":2654,"Ġfaces":2655,"Ġcity":2656,"Ġform":2657,"attered":2658,"Ġsuccess":2659,"Ġbegged":2660,"Ġce":2661,"ĠMaster":2662,"Ġchair":2663,"ified":2664,"ĠJill":2665,"Ġcond":2666,"Ġdisappo":2667,"Ġwicked":2668,"Ġph":2669,"arent":2670,"Ġpocket":2671,"ĠU":2672,"Ġwore":2673,"Ġwings":2674,"ĠCaptain":2675,"Ġmilk":2676,"erable":2677,"urse":2678,"ments":2679,"Ġdrag":2680,"Ġobser":2681,"Ġcalm":2682,"Ġmir":2683,"ories":2684,"Ġpun":2685,"Ġcaptain":2686,"Ġscr":2687,"Ġteac":2688,"aff":2689,"cul":2690,"ives":2691,"ĠTommy":2692,"ĠBlythe":2693,"ĠMay":2694,"emi":2695,"Ġeggs":2696,"Ġgun":2697,"Ġflower":2698,"Ġquietly":2699,"arling":2700,"Ġrom":2701,"Ġcarefully":2702,"Ġhonest":2703,"Ġtouched":2704,"ĠQuack":2705,"Ġsake":2706,"Ġcovered":2707,"Ġmerry":2708,"ĠBree":2709,"Ġburst":2710,"ĠCornelia":2711,"Let":2712,"rom":2713,"roo":2714,"Ġcase":2715,"Ġluck":2716,"Ġeight":2717,"ills":2718,"Ġflying":2719,"Ġhuman":2720,"Ġstrength":2721,"Miss":2722,"Ġfit":2723,"Ġstudy":2724,"aming":2725,"Ġcousin":2726,"Ġbell":2727,"ĠPe":2728,"ored":2729,"ĠLau":2730,"Ġslipped":2731,"Ġisland":2732,"ĠPaddy":2733,"Ġthoughts":2734,"Ġcho":2735,"Ġru":2736,"oyote":2737,"Ġai":2738,"Ġnearer":2739,"ĠCoyote":2740,"Ġaccount":2741,"Ġmiles":2742,"aisy":2743,"pe":2744,"Ġrap":2745,"Ġspent":2746,"Ġalive":2747,"ively":2748,"Ġsunshine":2749,"Ġnatur":2750,"achel":2751,"ĠGe":2752,"Ġblow":2753,"Ġfallen":2754,"Ġfunny":2755,"mn":2756,"ening":2757,"Ġrid":2758,"ĠOf":2759,"zes":2760,"Ġfeather":2761,"Ġaffect":2762,"Ġwalking":2763,"Ġsinging":2764,"Ġlifted":2765,"ables":2766,"Ġgrowing":2767,"ĠUna":2768,"Ġgift":2769,"Ġune":2770,"Ġshining":2771,"Ġcrowd":2772,"ĠNature":2773,"Ġheaven":2774,"ĠPro":2775,"Ġknowing":2776,"ex":2777,"Ġcomfortable":2778,"rief":2779,"uit":2780,"under":2781,"Ġgall":2782,"Ġwhist":2783,"Ġnodd":2784,"Ġvain":2785,"ateful":2786,"iety":2787,"Ġempty":2788,"Ġsighed":2789,"ĠInd":2790,"ĠWhere":2791,"Ġrode":2792,"Ġwrote":2793,"Ġeasily":2794,"cy":2795,"ech":2796,"form":2797,"uce":2798,"Ġpa":2799,"ĠAd":2800,"Ġsprang":2801,"Ġashamed":2802,"ĠMink":2803,"chard":2804,"ĠBig":2805,"orted":2806,"Ġdelighted":2807,"Ġexpression":2808,"IN":2809,"Ġfashion":2810,"Ġpicked":2811,"ĠDav":2812,"Ġstreet":2813,"ping":2814,"wing":2815,"Ġsym":2816,"aring":2817,"Ġanim":2818,"Ġletters":2819,"Ġjumped":2820,"ĠFairy":2821,"wise":2822,"Ġ1":2823,"Ġbade":2824,"Ġtrain":2825,"Ġbag":2826,"Ġscre":2827,"Ġhole":2828,"Ġdistance":2829,"ĠEnglish":2830,"Ġdiscovered":2831,"Ch":2832,"tern":2833,"ĠGreat":2834,"ĠHo":2835,"Ġiron":2836,"ĠFelicity":2837,"ays":2838,"Ġhearts":2839,"ĠFrank":2840,"Ġwondered":2841,"Ġugly":2842,"Ġgiving":2843,"Ġespecially":2844,"ES":2845,"ĠMouse":2846,"ounded":2847,"Ġboard":2848,"Ġpond":2849,"Ġunh":2850,"Ġunless":2851,"gl":2852,"ues":2853,"Ġlose":2854,"Ġbottom":2855,"ĠAs":2856,"Ġways":2857,"Ġswim":2858,"Ġdiffic":2859,"Ġarrived":2860,"Ne":2861,"Ġjolly":2862,"Ġver":2863,"Ġreach":2864,"ĠBeth":2865,"anted":2866,"arest":2867,"reed":2868,"add":2869,"ĠMarch":2870,"Ġslept":2871,"Ġdrove":2872,"Ġoccas":2873,"Ġsolemn":2874,"oved":2875,"uge":2876,"Ġthus":2877,"Ġhidden":2878,"ili":2879,"Ġcru":2880,"Ġfault":2881,"Ġport":2882,"icking":2883,"ĠSara":2884,"Ġnoise":2885,"Come":2886,"ayed":2887,"etty":2888,"ĠFaith":2889,"Ġenem":2890,"Ġbelieved":2891,"Ġcup":2892,"Ġdance":2893,"lea":2894,"Ġpride":2895,"Ġsilent":2896,"Ġcrept":2897,"Ġcook":2898,"anet":2899,"Ġrough":2900,"ĠCec":2901,"Ġteeth":2902,"Ġinstant":2903,"Ġrolled":2904,"cri":2905,"umbled":2906,"Ġdrive":2907,"Ġtur":2908,"Ġbare":2909,"Ġmark":2910,"Ġnotice":2911,"ĠPat":2912,"Ġhappiness":2913,"via":2914,"ities":2915,"acked":2916,"Ġroof":2917,"ĠRiver":2918,"te":2919,"arry":2920,"Ġstore":2921,"Ġweak":2922,"cell":2923,"Ġfurther":2924,"bs":2925,"ring":2926,"athered":2927,"Ġcor":2928,"Ġtaught":2929,"Ġage":2930,"Ġann":2931,"iew":2932,"eterm":2933,"Perhaps":2934,"ald":2935,"Ġfaint":2936,"Ġsingle":2937,"ocked":2938,"Ġmaiden":2939,"Ġdeclared":2940,"Ġaston":2941,"umber":2942,"ĠOw":2943,"Ġdespair":2944,"ĠNew":2945,"Ġflo":2946,"Ġdeser":2947,"Ġchest":2948,"Ġexcited":2949,"yal":2950,"Ġaunt":2951,"Ġthro":2952,"Ġpar":2953,"Ġsugg":2954,"ĠOne":2955,"Ġtouch":2956,"rupt":2957,"Even":2958,"Ġcro":2959,"Ġdeterm":2960,"irty":2961,"Ġate":2962,"Ġexper":2963,"Ġmoved":2964,"Ġbuild":2965,"Ġpieces":2966,"Ġsettled":2967,"Ġduty":2968,"An":2969,"ĠDemi":2970,"Ġplaces":2971,"Ġunderstood":2972,"Ġlama":2973,"Ġshot":2974,"Ġplaying":2975,"Ġskin":2976,"Ġwoods":2977,"ĠWilliam":2978,"jo":2979,"Ġstate":2980,"Ġworked":2981,"Ġshoulders":2982,"Ġdreams":2983,"bl":2984,"asped":2985,"Ġconcer":2986,"Ġmountain":2987,"ĠBob":2988,"Ġwelcome":2989,"uly":2990,"Ġlaughter":2991,"Ġpeep":2992,"ĠHere":2993,"Ġtemper":2994,"Ġsymp":2995,"Ġra":2996,"ĠWind":2997,"Ġexclaimed":2998,"ustr":2999,"Ġimm":3000,"Ġtremb":3001,"Ġearnest":3002,"ĠAv":3003,"Ġdef":3004,"Ġwritten":3005,"Ġtale":3006,"omed":3007,"idly":3008,"ĠDavy":3009,"Ġyours":3010,"Ġprot":3011,"Ġcommand":3012,"ĠMatthew":3013,"Ġcool":3014,"Ġworry":3015,"Ġflung":3016,"ressed":3017,"Ġguest":3018,"gli":3019,"ming":3020,"Ġpink":3021,"ĠMa":3022,"owgli":3023,"ĠMo":3024,"ĠFor":3025,"Ġrob":3026,"Ġprov":3027,"Ġremained":3028,"Ġkindly":3029,"Ġcourage":3030,"Is":3031,"Ġstir":3032,"Ġplenty":3033,"Ġfox":3034,"Ġhelped":3035,"Ġimposs":3036,"Ġfields":3037,"Ġmonths":3038,"bow":3039,"Ġpick":3040,"ĠBell":3041,"ours":3042,"Ġeveryone":3043,"Ġglance":3044,"Ġcrown":3045,"Ġapple":3046,"Ġdesire":3047,"Ġcheeks":3048,"Ġwondering":3049,"eyed":3050,"Ġsisters":3051,"Ġmem":3052,"Ġsteal":3053,"Ġholding":3054,"Ġeffect":3055,"Ġfill":3056,"Ġyo":3057,"Ġant":3058,"Ġblind":3059,"ĠWhitefoot":3060,"ĠAlec":3061,"lie":3062,"Ġtied":3063,"Ġfier":3064,"arrow":3065,"Ġnoticed":3066,"elve":3067,"Ġsubject":3068,"Ġwhatever":3069,"aving":3070,"Ġremark":3071,"Ġfairies":3072,"Ġhanging":3073,"Ġodd":3074,"lled":3075,"Ġpin":3076,"eslie":3077,"ĠMin":3078,"Ġtrick":3079,"Ġgrin":3080,"Ġfirm":3081,"Ġinqu":3082,"empt":3083,"Ġputting":3084,"ĠMeadow":3085,"Old":3086,"eal":3087,"uct":3088,"Ġline":3089,"amma":3090,"Ġshone":3091,"ĠSah":3092,"Ġprob":3093,"ipped":3094,"Ġimpossible":3095,"LE":3096,"Ġfix":3097,"Ġsol":3098,"Ġgrey":3099,"gged":3100,"Ġgame":3101,"Ġmel":3102,"pper":3103,"ĠWest":3104,"Ġdisp":3105,"rier":3106,"ĠFl":3107,"Ġsimply":3108,"ĠBreezes":3109,"ĠGeorge":3110,"Ġcake":3111,"Ġpot":3112,"ters":3113,"ĠOn":3114,"Ġfollowing":3115,"medi":3116,"Ġordered":3117,"Ġdared":3118,"Ġchuck":3119,"ĠCharlott":3120,"jest":3121,"na":3122,"Ġjud":3123,"Ġacqu":3124,"ipe":3125,"Ġsooner":3126,"ooty":3127,"action":3128,"gar":3129,"ination":3130,"Ġpill":3131,"Ġpaid":3132,"Ġoffered":3133,"Ġnature":3134,"rooge":3135,"onlea":3136,"Ġcurious":3137,"Ġreceived":3138,"vere":3139,"Ġstories":3140,"amber":3141,"Ġprison":3142,"Ġprof":3143,"Ġsatisfied":3144,"Ġwitch":3145,"ĠMered":3146,"ept":3147,"Ġvalley":3148,"Ġsomehow":3149,"Ġmud":3150,"ected":3151,"ĠMeredith":3152,"pit":3153,"ils":3154,"Ġfold":3155,"Ġadmir":3156,"Ġbeneath":3157,"IS":3158,"Somet":3159,"ios":3160,"we":3161,"Ġhunt":3162,"Ġbold":3163,"Ġkissed":3164,"IT":3165,"now":3166,"Ġmort":3167,"Ġspell":3168,"Ġwants":3169,"Ġbridge":3170,"Ġvoices":3171,"Ġsilk":3172,"ners":3173,"tter":3174,"otion":3175,"Ġfeast":3176,"Ġtwelve":3177,"Ġstream":3178,"Ġhorn":3179,"Ġtwice":3180,"Ġeating":3181,"Ġwet":3182,"Ġbent":3183,"Ġund":3184,"Ġrust":3185,"Ġspl":3186,"ĠEd":3187,"Ġpresently":3188,"Ġdetermined":3189,"__":3190,"ys":3191,"Ġgathered":3192,"uts":3193,"Ġshoes":3194,"Ġbrook":3195,"ĠLe":3196,"Ġfinger":3197,"che":3198,"Ġhiding":3199,"Ġstorm":3200,"Ġsheep":3201,"Ġknight":3202,"ĠLord":3203,"Ġroses":3204,"Ġobject":3205,"Ġstones":3206,"Ġrushed":3207,"Ġeng":3208,"Ġimport":3209,"ĠEngland":3210,"Mar":3211,"terer":3212,"Ġcott":3213,"Ġseek":3214,"Ġteach":3215,"Ġcoun":3216,"Ġspirits":3217,"AN":3218,"Never":3219,"aily":3220,"ike":3221,"Ġgently":3222,"umph":3223,"Ġmor":3224,"ĠPoss":3225,"ĠGer":3226,"gn":3227,"oe":3228,"Ġsang":3229,"Ġhid":3230,"Ġfart":3231,"hatterer":3232,"maid":3233,"Ġweeks":3234,"Ġknees":3235,"Ġkingdom":3236,"ĠAvonlea":3237,"Ġstared":3238,"Ġweather":3239,"ending":3240,"resently":3241,"Ġfingers":3242,"Ġnodded":3243,"Ġtreat":3244,"Ġgra":3245,"Ġsob":3246,"Ġsomewhat":3247,"Ġcover":3248,"Ġguard":3249,"Ġescape":3250,"der":3251,"zy":3252,"Ġduring":3253,"ĠBear":3254,"Ġinnoc":3255,"aked":3256,"ĠDaisy":3257,"ĠThank":3258,"ĠPossum":3259,"Ġmill":3260,"Ġallowed":3261,"ĠSqu":3262,"ushing":3263,"Ġagreed":3264,"Ġcommon":3265,"Ġeaten":3266,"Ġinteresting":3267,"gain":3268,"idence":3269,"ics":3270,"ckon":3271,"Ġexcite":3272,"gan":3273,"str":3274,"Ġsoc":3275,"Ġopin":3276,"Ġdragon":3277,"Ġoccasion":3278,"Presently":3279,"host":3280,"Ġhate":3281,"Ġmed":3282,"ĠMusk":3283,"Ġdozen":3284,"ĠJem":3285,"Ġamaz":3286,"Ġgloom":3287,"ĠJos":3288,"Ġkeeping":3289,"Ġhoped":3290,"Ġtoday":3291,"Ġbew":3292,"Ġshadows":3293,"ĠDid":3294,"Ġjoke":3295,"Ġpurpose":3296,"Ġcruel":3297,"Ġwon":3298,"Ġdogs":3299,"Ġbutter":3300,"Ġorchard":3301,"aker":3302,"Ġreflect":3303,"Ġmischief":3304,"cking":3305,"Ġyard":3306,"uster":3307,"antic":3308,"Ġprecious":3309,"Ġclimbed":3310,"Ġdirection":3311,"mediately":3312,"iel":3313,"Ġpor":3314,"ĠHooty":3315,"Ġflat":3316,"ossom":3317,"Ġquestions":3318,"Ġtoward":3319,"Ġamuse":3320,"Ġrepe":3321,"Ġenjoyed":3322,"bell":3323,"ole":3324,"Ġspark":3325,"Ġhills":3326,"Ġmurm":3327,"Ġcent":3328,"Ġdam":3329,"idently":3330,"ĠRob":3331,"Ġdarkness":3332,"ĠSahib":3333,"ĠAb":3334,"ĠJames":3335,"ĠMuskrat":3336,"Ġrejo":3337,"Ġshare":3338,"ĠSe":3339,"ĠJanet":3340,"ĠTr":3341,"lessly":3342,"Ġcontent":3343,"Ġbuy":3344,"Ġadvice":3345,"Ġshouted":3346,"ribly":3347,"iently":3348,"Ġsusp":3349,"ĠRachel":3350,"Ġpost":3351,"Ġaccom":3352,"Ġdelightful":3353,"Ġpossess":3354,"Ġwhisper":3355,"jesty":3356,"iers":3357,"ms":3358,"Ġid":3359,"Ġhabit":3360,"eless":3361,"Ġthrow":3362,"Ġscene":3363,"Ġbreast":3364,"Ġentire":3365,"ibly":3366,"Ġimagine":3367,"Ġtaste":3368,"ik":3369,"Ġtiny":3370,"Ġpet":3371,"ĠMah":3372,"ifty":3373,"ĠGo":3374,"Ġwindows":3375,"Ġforgive":3376,"Ġmeeting":3377,"Ġcheerful":3378,"Ġmention":3379,"onn":3380,"EN":3381,"fl":3382,"iol":3383,"Ġstup":3384,"Ġclosed":3385,"Ġspoken":3386,"ĠGlen":3387,"Where":3388,"Ġshame":3389,"Ġfavor":3390,"inct":3391,"Ġtow":3392,"Ġaside":3393,"ĠMac":3394,"Ġcost":3395,"Ġsorts":3396,"Ġevil":3397,"ilver":3398,"Ġstayed":3399,"Ġwalls":3400,"Ġexcitement":3401,"Reddy":3402,"Ġtight":3403,"Ġworst":3404,"Ġbless":3405,"Ġfarther":3406,"Ġgrace":3407,"Ġhonour":3408,"Ġthroat":3409,"Ġsac":3410,"ĠBetty":3411,"ĠNever":3412,"Ġsmell":3413,"Ġswift":3414,"Ġmarriage":3415,"Ġharb":3416,"ĠPhil":3417,"sc":3418,"Ġshape":3419,"Ġneeded":3420,"Ġbuilt":3421,"Ġprobably":3422,"Ġsons":3423,"Ġhuge":3424,"Ġpra":3425,"Ġtempt":3426,"Ġdim":3427,"Ġdancing":3428,"Ġdemand":3429,"Ġspeech":3430,"Ġpolite":3431,"together":3432,"aver":3433,"wo":3434,"Ġstud":3435,"itty":3436,"col":3437,"ker":3438,"Ġweary":3439,"Ġsaved":3440,"Ġsober":3441,"ocks":3442,"Ġservice":3443,"Ġuncom":3444,"erv":3445,"Ġstretched":3446,"Ġrag":3447,"ouses":3448,"ceeded":3449,"ege":3450,"ises":3451,"urd":3452,"ounds":3453,"Ġpassion":3454,"However":3455,"place":3456,"Ġparent":3457,"cend":3458,"Ġsympath":3459,"ael":3460,"inking":3461,"Ġlord":3462,"Ġneat":3463,"ĠAre":3464,"Ġagree":3465,"Ġtrot":3466,"ishment":3467,"Ġfeelings":3468,"Ġsearch":3469,"ĠDavid":3470,"Yet":3471,"het":3472,"ĠSun":3473,"usion":3474,"Ġjack":3475,"Ġtherefore":3476,"ĠLeslie":3477,"Ġviol":3478,"Ġpointed":3479,"Ġcomm":3480,"Ġgrateful":3481,"Ġteacher":3482,"Ġsuspect":3483,"elen":3484,"Ġstrugg":3485,"Ġaccept":3486,"Ġlads":3487,"Ġstepped":3488,"Ġdisappeared":3489,"Ġcharac":3490,"Ġstars":3491,"Ġexam":3492,"aret":3493,"Ġcalling":3494,"Ġrocks":3495,"Ġnote":3496,"Ġval":3497,"Ġreply":3498,"Ġbesides":3499,"From":3500,"OO":3501,"yl":3502,"Ġdanced":3503,"Ġstuff":3504,"Ġchamber":3505,"Ġsomebody":3506,"Ġconv":3507,"Ġsunset":3508,"Ġspeaking":3509,"ĠToad":3510,"Ġlamp":3511,"ashing":3512,"Ġhero":3513,"Ġstern":3514,"Ġspect":3515,"ickly":3516,"Ġenc":3517,"ĠCecily":3518,"Ġdest":3519,"ĠMowgli":3520,"ipm":3521,"Ġfellows":3522,"ĠVery":3523,"exclaimed":3524,"Ġwine":3525,"any":3526,"Ġreward":3527,"ĠAt":3528,"Ġprod":3529,"Ġcontr":3530,"Ġeffort":3531,"Ġfortune":3532,"den":3533,"pr":3534,"Ġlest":3535,"ĠCrow":3536,"Ġimmediately":3537,"ĠChipm":3538,"ungle":3539,"Ġanger":3540,"Ġtriumph":3541,"Ġopinion":3542,"Ġfet":3543,"rily":3544,"ĠOtter":3545,"ĠBrook":3546,"Ġmerely":3547,"ĠChipmunk":3548,"Ġice":3549,"Ġhated":3550,"inging":3551,"Ġdull":3552,"Ġride":3553,"Ġboots":3554,"ĠHave":3555,"Ġfinding":3556,"Ġfriendly":3557,"Ġdrop":3558,"Ġpaused":3559,"field":3560,"Ġer":3561,"Ġnurse":3562,"Ġpig":3563,"Ġpuzz":3564,"ĠIll":3565,"Ġroyal":3566,"Ġpos":3567,"Ġcand":3568,"Ġparl":3569,"Ġseat":3570,"ssed":3571,"Ġswall":3572,"Ġcreatures":3573,"Ġfavour":3574,"ĠScrooge":3575,"Aunt":3576,"garet":3577,"Ġfal":3578,"Ġlit":3579,"Ġstom":3580,"Ġstiff":3581,"Ġmeadow":3582,"ĠChatterer":3583,"Ġworn":3584,"Ġtwink":3585,"Ġcareful":3586,"Ġreading":3587,"Ġsimple":3588,"Ġvanished":3589,"Ġunhappy":3590,"looking":3591,"esides":3592,"Ġtruly":3593,"Ġsatisfaction":3594,"while":3595,"Ġfanc":3596,"owned":3597,"ledge":3598,"Ġmemory":3599,"erence":3600,"lling":3601,"oted":3602,"chant":3603,"Ġslight":3604,"ĠThorn":3605,"Ġmistake":3606,"Ġpriv":3607,"Ġpriest":3608,"Ġprepared":3609,"Ġstomach":3610,"ham":3611,"Ġdawn":3612,"Ġpit":3613,"step":3614,"unch":3615,"Ġspare":3616,"Ġthinks":3617,"Ġbehold":3618,"Ġcurtain":3619,"Ġburied":3620,"AR":3621,"Ġstole":3622,"Ġsounded":3623,"Ġtreasure":3624,"fa":3625,"Ġutter":3626,"Ġfare":3627,"ĠFour":3628,"Ġview":3629,"Ġanywhere":3630,"Ġremain":3631,"Ġlistening":3632,"Ġnames":3633,"irrel":3634,"Ġfruit":3635,"Ġbushes":3636,"ustration":3637,"time":3638,"resh":3639,"Ġhealth":3640,"ghing":3641,"ĠCr":3642,"Ġrosy":3643,"Ġclos":3644,"ean":3645,"wood":3646,"held":3647,"Ġlane":3648,"Ġgle":3649,"Ġlikes":3650,"ounced":3651,"LL":3652,"Ġlion":3653,"Ġloving":3654,"gy":3655,"lin":3656,"yr":3657,"encer":3658,"unted":3659,"ĠDear":3660,"ĠGold":3661,"Ġmanage":3662,"Ġhut":3663,"Ġmour":3664,"isc":3665,"ams":3666,"ility":3667,"ĠCan":3668,"Ġvar":3669,"ume":3670,"Ġsomewhere":3671,"rench":3672,"Ġprett":3673,"Ġended":3674,"Ġemb":3675,"Ġelder":3676,"Ġcirc":3677,"Ġstupid":3678,"iving":3679,"Ġsides":3680,"ichael":3681,"Ġleg":3682,"ĠRich":3683,"Ġpract":3684,"Ġeagerly":3685,"Ġbull":3686,"Ġdw":3687,"Ġaltogether":3688,"Ġvict":3689,"Ġolder":3690,"Ġimpat":3691,"bub":3692,"Ġcher":3693,"Ġnecess":3694,"Ġafterwards":3695,"uced":3696,"Ġevidently":3697,"ye":3698,"Ġspend":3699,"ĠCelia":3700,"Ġpresence":3701,"iosity":3702,"Ġbor":3703,"Ġseized":3704,"acks":3705,"ĠRos":3706,"Ġbloom":3707,"Ġmod":3708,"Only":3709,"Ġpatience":3710,"Ġregard":3711,"Ġcharming":3712,"ĠLaughing":3713,"Ġhig":3714,"Ġhol":3715,"Ġnarrow":3716,"Ġpear":3717,"Ġasking":3718,"Ġstuck":3719,"Ġshy":3720,"roll":3721,"Ġsurely":3722,"Ġdreamed":3723,"Ġsmooth":3724,"Ġbirth":3725,"Ġnatural":3726,"Ġaffection":3727,"ĠIllustration":3728,"Ġwarn":3729,"eds":3730,"Ġmuttered":3731,"ences":3732,"Ġsul":3733,"Ġwhenever":3734,"ĠHound":3735,"Ġconcl":3736,"Ġhearing":3737,"inary":3738,"Ġlaw":3739,"Ġgar":3740,"Ġhers":3741,"ĠLaw":3742,"oph":3743,"Ġconvers":3744,"Ġoffer":3745,"onsense":3746,"Ġdistur":3747,"Ġmistress":3748,"Ġpictures":3749,"ancho":3750,"tree":3751,"hearted":3752,"Ġbattle":3753,"ĠMist":3754,"anded":3755,"Ġparents":3756,"Did":3757,"Ġwag":3758,"Ġfate":3759,"Ġgather":3760,"terday":3761,"Ġshoot":3762,"Ġobl":3763,"Ġcompanion":3764,"Ġbitterly":3765,"Pr":3766,"tle":3767,"These":3768,"ushes":3769,"ĠJungle":3770,"Ġwaist":3771,"bye":3772,"Ġdifficult":3773,"Ġnaught":3774,"Ġbeheld":3775,"ution":3776,"acle":3777,"ĠCoon":3778,"Ġthrown":3779,"Ġhoping":3780,"Ġbones":3781,"omes":3782,"riar":3783,"ardon":3784,"umn":3785,"ĠHer":3786,"Ġblossom":3787,"Ġawake":3788,"Ġorders":3789,"Ġfaithful":3790,"John":3791,"ĠOliver":3792,"Ġchoose":3793,"ĠSpencer":3794,"Ġconsidered":3795,"Ġinnocent":3796,"OR":3797,"aled":3798,"ĠWood":3799,"tha":3800,"ĠDarling":3801,"Ġworking":3802,"ĠRe":3803,"Ġbegun":3804,"uded":3805,"Ġrecogn":3806,"Ġobserved":3807,"Besides":3808,"fer":3809,"kn":3810,"asp":3811,"Ġalarm":3812,"ĠGrand":3813,"Ġgrim":3814,"Ġclass":3815,"Ġinstantly":3816,"Ġappearance":3817,"cher":3818,"Ġsilly":3819,"Ġdign":3820,"Ġresp":3821,"inda":3822,"Ġleap":3823,"ips":3824,"peror":3825,"apping":3826,"nie":3827,"Ġtonight":3828,"Ġcause":3829,"Ġpant":3830,"Ġequ":3831,"Ġtroubled":3832,"Once":3833,"Ġhonor":3834,"Ġinterested":3835,"Ġwest":3836,"Ġblew":3837,"oup":3838,"Ġthunder":3839,"Ġexcell":3840,"Ġenter":3841,"Ġgentlemen":3842,"Ġwit":3843,"elled":3844,"iece":3845,"Ġvent":3846,"ĠHarr":3847,"Ġconce":3848,"oseph":3849,"Ġcuriosity":3850,"While":3851,"Ġdrawing":3852,"Ġbarn":3853,"alf":3854,"Ġcarp":3855,"Ġdrawn":3856,"Ġforehead":3857,"Ġfalling":3858,"Who":3859,"Next":3860,"Ġdusk":3861,"eness":3862,"omas":3863,"ulous":3864,"Ġchim":3865,"Ġtrans":3866,"ait":3867,"lves":3868,"Ġdying":3869,"Ġstout":3870,"Ġbranc":3871,"Ġremind":3872,"Ġattend":3873,"ĠJims":3874,"Ġmoonlight":3875,"Ġneighbors":3876,"Ġgeneral":3877,"val":3878,"Ġdiv":3879,"arf":3880,"Ġpub":3881,"ĠMad":3882,"Ġplaced":3883,"Ġlonged":3884,"Ġfinally":3885,"Ġregret":3886,"OW":3887,"Rilla":3888,"Ġbore":3889,"ldom":3890,"ĠNorth":3891,"Ġtrem":3892,"Ġuseful":3893,"Ġmiserable":3894,"Ġclimb":3895,"Ġoblig":3896,"Ġtask":3897,"road":3898,"Ġchief":3899,"ums":3900,"Ġindign":3901,"Ġrelief":3902,"Ġlessons":3903,"ĠRichard":3904,"Ġchimney":3905,"irley":3906,"Ġshake":3907,"ĠJust":3908,"ĠFred":3909,"ephen":3910,"Ġenv":3911,"Ġpatient":3912,"Ġservant":3913,"Ġfailed":3914,"Ġenemy":3915,"Ġnine":3916,"ĠDaniel":3917,"Ġexplained":3918,"Ġpurple":3919,"Ġwra":3920,"Ġgrat":3921,"Ġyoungest":3922,"Ġcaused":3923,"Ġhastily":3924,"Ġapart":3925,"Ġoppos":3926,"Ġcottage":3927,"nat":3928,"Ġband":3929,"Ġcust":3930,"Ġpop":3931,"ĠMor":3932,"Ġseldom":3933,"Ġknife":3934,"ĠFrench":3935,"Ġthanked":3936,"ians":3937,"Ġspeed":3938,"Ġmatters":3939,"Ġactually":3940,"Ġcollege":3941,"ĠPatty":3942,"itter":3943,"Ġlower":3944,"oming":3945,"oman":3946,"Ġrequ":3947,"ĠMichael":3948,"Ġlonging":3949,"ĠMargaret":3950,"ucked":3951,"ai":3952,"yard":3953,"Ġcared":3954,"asc":3955,"Ġdesper":3956,"Ġadventures":3957,"Ġsuspic":3958,"Ġentirely":3959,"Little":3960,"right":3961,"Ġfut":3962,"Ġpool":3963,"riped":3964,"ainted":3965,"using":3966,"Ġfeed":3967,"Ġgets":3968,"Ġgreet":3969,"Ġcheek":3970,"ints":3971,"Ġstraw":3972,"Ġsadly":3973,"Ġmagn":3974,"Ġden":3975,"Ġshell":3976,"ury":3977,"Ġprin":3978,"Ġtramp":3979,"Ġpassing":3980,"Ġsleeping":3981,"Ġbabies":3982,"Ġregular":3983,"Poor":3984,"Ġsin":3985,"Ġnumber":3986,"onel":3987,"Ġgoss":3988,"Ġlock":3989,"ĠMarsh":3990,"Ġdifference":3991,"Ġgroan":3992,"Ġcharacter":3993,"AS":3994,"ior":3995,"Ġcab":3996,"Ġlab":3997,"Ġpir":3998,"Ġaloud":3999,"ĠHook":4000,"Ġwoke":4001,"Ġrefused":4002,"Ġprayer":4003,"Ġservants":4004,"Ġyesterday":4005,"Ġbranches":4006,"Ġfifty":4007,"itation":4008,"Ġmain":4009,"Ġwaste":4010,"ĠBuster":4011,"ĠEric":4012,"Ġrepro":4013,"ĠYour":4014,"ethod":4015,"Ġguessed":4016,"Ġsmoke":4017,"ĠEllen":4018,"Ġhouses":4019,"Ġdet":4020,"Ġrib":4021,"Ġchap":4022,"Ġcrim":4023,"Ġaccord":4024,"Ġattempt":4025,"Ġsadd":4026,"ĠShirley":4027,"iolet":4028,"Ġguests":4029,"ĠGerman":4030,"Ġav":4031,"Ġbought":4032,"oura":4033,"Ġcats":4034,"Ġmyster":4035,"Ġthanks":4036,"Ġgreatest":4037,"Ġmighty":4038,"Ġbigger":4039,"Ġuncons":4040,"Ġraised":4041,"Ġfixed":4042,"ĠJosie":4043,"Ġbark":4044,"Ġpure":4045,"Ġrow":4046,"Ġrage":4047,"Ġscra":4048,"Ġkeen":4049,"Ġsupposed":4050,"Ġgravely":4051,"ius":4052,"rid":4053,"Ġmat":4054,"Ġlaz":4055,"Ġshaking":4056,"Ġmanaged":4057,"Ġblame":4058,"Ġwolf":4059,"ĠKil":4060,"Ġscorn":4061,"Ġcarrying":4062,"Ġdisappointed":4063,"Ġimportant":4064,"ĠSquirrel":4065,"Ġaut":4066,"Ġpurs":4067,"ĠPath":4068,"intment":4069,"Ġtroubles":4070,"Ġplainly":4071,"book":4072,"la":4073,"Ġfence":4074,"Ġcord":4075,"Ġtrunk":4076,"Ġunf":4077,"Ġourselves":4078,"ifteen":4079,"Ġsharply":4080,"Ġburning":4081,"Kim":4082,"Tom":4083,"ray":4084,"Ġghost":4085,"Ġstairs":4086,"Ġwept":4087,"que":4088,"Ġfeared":4089,"Ġunus":4090,"ivered":4091,"Ġproved":4092,"Ġbringing":4093,"Ġburned":4094,"Before":4095,"Ġclouds":4096,"Ġfeathers":4097,"THE":4098,"fall":4099,"Ġwid":4100,"acy":4101,"acted":4102,"Ġham":4103,"ifully":4104,"Ġupstairs":4105,"ĠWo":4106,"Ġpoet":4107,"Ġkindness":4108,"Ġlesson":4109,"Ġconversation":4110,"som":4111,"Ġwake":4112,"Ġcoo":4113,"Ġcamp":4114,"orse":4115,"ety":4116,"Ġstation":4117,"ilight":4118,"ĠAndrew":4119,"Ġmeaning":4120,"umbling":4121,"annah":4122,"Ġleaned":4123,"orld":4124,"Ġreve":4125,"Ġmeal":4126,"ĠPer":4127,"lease":4128,"Ġcarriage":4129,"meny":4130,"Ġaffairs":4131,"iamond":4132,"Go":4133,"ON":4134,"Ġlake":4135,"alk":4136,"iles":4137,"Ġsuper":4138,"Ġbrisk":4139,"liz":4140,"Ġwriting":4141,"ĠSpir":4142,"Ġwandered":4143,"Ġrepeated":4144,"ED":4145,"Ġfurn":4146,"Ġheat":4147,"Ġeast":4148,"Ġknocked":4149,"Ġsomeone":4150,"Ġscold":4151,"Ġheartily":4152,"ĠFelix":4153,"ĠXX":4154,"Ġimmense":4155,"Ġaud":4156,"Ġbund":4157,"Ġdiamond":4158,"ĠIng":4159,"Ġreckon":4160,"ĠOF":4161,"Ġnights":4162,"Ġfarewell":4163,"Ġexcellent":4164,"iot":4165,"Ġbra":4166,"Ġpardon":4167,"acious":4168,"Ġworried":4169,"Ġclo":4170,"Ġhopes":4171,"lete":4172,"rigio":4173,"Sometimes":4174,"Ah":4175,"gu":4176,"mit":4177,"Ġbough":4178,"Ġheels":4179,"aching":4180,"Ġchick":4181,"Ġjew":4182,"Ġwilling":4183,"Ġlang":4184,"arb":4185,"alled":4186,"Ġtwilight":4187,"ement":4188,"ĠKitty":4189,"ĠThomas":4190,"ĠRoger":4191,"bling":4192,"gre":4193,"oll":4194,"Ġheav":4195,"Ġlatter":4196,"Ġperform":4197,"Ġterror":4198,"Ġfamous":4199,"Ġaffair":4200,"Ġwaves":4201,"Ġasp":4202,"urred":4203,"Ġanc":4204,"Ġneg":4205,"elle":4206,"umper":4207,"ĠNor":4208,"Ġopposite":4209,"Jim":4210,"ges":4211,"Ġwits":4212,"Ġmamma":4213,"Ġwash":4214,"oop":4215,"Ġsell":4216,"Ġlies":4217,"elly":4218,"ĠTeddy":4219,"Ġleaf":4220,"Ġusually":4221,"Ġsounds":4222,"Ġsafely":4223,"Ġcolour":4224,"Was":4225,"Ġfis":4226,"arked":4227,"Ġforb":4228,"ĠOlivia":4229,"Ġfuture":4230,"Ġcrimson":4231,"Will":4232,"Ġfishing":4233,"Ġbrill":4234,"Ġhorror":4235,"Ġopening":4236,"Ġcrossed":4237,"Ġbeasts":4238,"Ġtrembling":4239,"for":4240,"Ġbree":4241,"Ġgrief":4242,"Ġsofa":4243,"Ġallow":4244,"rod":4245,"ĠPrigio":4246,"ĠJoseph":4247,"Ġcomplete":4248,"Ġlively":4249,"Ġattention":4250,"Ġsquare":4251,"Ġthreat":4252,"Ġrace":4253,"ĠLong":4254,"Ġunw":4255,"angers":4256,"Ġdoorway":4257,"ddenly":4258,"Ġforever":4259,"Ġdreadfully":4260,"Ġneighbour":4261,"Ġinterrupt":4262,"Ġstaring":4263,"Ġsuggested":4264,"Ġpeeped":4265,"kerchief":4266,"TH":4267,"mary":4268,"Ġtomorrow":4269,"Ġsore":4270,"Ġmeas":4271,"ulf":4272,"Ġbranch":4273,"Ġdoors":4274,"Ġbush":4275,"Nobody":4276,"Ġhaste":4277,"Ġsurr":4278,"Ġbottle":4279,"Ġuncomfort":4280,"ĠThorny":4281,"Ġcustom":4282,"rance":4283,"itated":4284,"Ġdwell":4285,"Ġupper":4286,"essor":4287,"Ġloss":4288,"Ġknowledge":4289,"ĠNay":4290,"Ġconsc":4291,"Ġmissed":4292,"Ġexplain":4293,"Ġconsider":4294,"Ġextra":4295,"ĠMahbub":4296,"RE":4297,"enn":4298,"Ġmyst":4299,"ĠGables":4300,"anda":4301,"ĠLook":4302,"Ġeverywhere":4303,"Ġswept":4304,"Ġhorrible":4305,"Ġspec":4306,"Ġresolved":4307,"Ġchuckled":4308,"Ġpuzzled":4309,"Ġnecessary":4310,"bers":4311,"cil":4312,"clock":4313,"ĠIsab":4314,"Ġinvited":4315,"Ġscarcely":4316,"orky":4317,"LD":4318,"wed":4319,"rep":4320,"Ġlap":4321,"Ġpile":4322,"vern":4323,"Ġhist":4324,"rose":4325,"ĠPorky":4326,"ĠOr":4327,"ortun":4328,"Ġconfess":4329,"Ġveil":4330,"ixt":4331,"Ġtakes":4332,"Ġban":4333,"isa":4334,"oring":4335,"Ġgown":4336,"ades":4337,"Ġrul":4338,"umble":4339,"Ġlog":4340,"Ġblessed":4341,"ague":4342,"ĠStephen":4343,"ĠStriped":4344,"Ġanxiously":4345,"Ġtrail":4346,"Ġwist":4347,"Ġpushed":4348,"ĠGard":4349,"Ġunp":4350,"III":4351,"Ġeldest":4352,"Ġdelicate":4353,"ĠOwl":4354,"lter":4355,"Ġtick":4356,"Ġdig":4357,"Ġduck":4358,"Ġbeard":4359,"ality":4360,"eline":4361,"Ġlear":4362,"ĠHans":4363,"iction":4364,"Ġdistant":4365,"Ġbadly":4366,"Such":4367,"eral":4368,"asy":4369,"Ġformer":4370,"ĠBess":4371,"Ġblank":4372,"Ġgreater":4373,"Ġapples":4374,"Ġimpro":4375,"Ġexperience":4376,"Ġbowed":4377,"ids":4378,"Ġstead":4379,"ĠAm":4380,"ists":4381,"Ġprec":4382,"Ġgreatly":4383,"Ġkey":4384,"Ġyounger":4385,"Ġprompt":4386,"Ġmidst":4387,"Suddenly":4388,"Ġhit":4389,"Ġbrief":4390,"Ġcows":4391,"Ġnuts":4392,"ooped":4393,"Ġrise":4394,"ĠHelen":4395,"Ġlover":4396,"ember":4397,"leton":4398,"Ġdiscover":4399,"Ġgossip":4400,"ky":4401,"patch":4402,"amm":4403,"Ġspin":4404,"ĠTed":4405,"ĠHannah":4406,"Ġlocked":4407,"Ġscattered":4408,"ospit":4409,"ailed":4410,"Ġrooms":4411,"Ġnorth":4412,"Ġceased":4413,"ING":4414,"ds":4415,"Ġest":4416,"Ġhither":4417,"Ġfifteen":4418,"ĠPast":4419,"ĠNe":4420,"Ġflock":4421,"Ġslipp":4422,"Ġinform":4423,"rer":4424,"itary":4425,"Their":4426,"Ġconst":4427,"Ġsetting":4428,"Ġpretended":4429,"Ġfairly":4430,"ultan":4431,"Ġvel":4432,"Still":4433,"Ġfierce":4434,"ĠHarrison":4435,"Ġmagnific":4436,"Have":4437,"rect":4438,"Ġhoney":4439,"Ġrising":4440,"Ġsailed":4441,"chie":4442,"Ġnearest":4443,"ĠSultan":4444,"ĠBarry":4445,"ĠDuck":4446,"Ġblaz":4447,"Ġswam":4448,"Ġimpress":4449,"ĠValley":4450,"Ġjoin":4451,"iliar":4452,"Ġlangu":4453,"lu":4454,"yn":4455,"hest":4456,"Ġmonkey":4457,"Ġdriven":4458,"ĠBobby":4459,"kin":4460,"of":4461,"rum":4462,"Ġpine":4463,"acing":4464,"Ġstable":4465,"ĠBy":4466,"ĠPerhaps":4467,"Ġbosom":4468,"Ġhandkerchief":4469,"Ġhappily":4470,"Ġjoined":4471,"Ġrubbed":4472,"Ġromantic":4473,"Marilla":4474,"Any":4475,"See":4476,"dem":4477,"Ġben":4478,"Ġnonsense":4479,"ĠBriar":4480,"ĠTur":4481,"Ġtrif":4482,"Ġthrust":4483,"board":4484,"Ġdrank":4485,"Ġsympathy":4486,"iable":4487,"jor":4488,"uch":4489,"Ġincl":4490,"Ġmanners":4491,"Ġconscious":4492,"Ġhunted":4493,"Ġfolk":4494,"Ġobliged":4495,"ĠKilmeny":4496,"Bl":4497,"Sh":4498,"hold":4499,"uous":4500,"Ġnurs":4501,"Ġgrie":4502,"ĠWorld":4503,"Ġglanced":4504,"ountain":4505,"Ġharder":4506,"Inst":4507,"Ġserved":4508,"Ġterribly":4509,"Ġenjoying":4510,"Ġhastened":4511,"Ġfighting":4512,"Ġsoldiers":4513,"Ġastonished":4514,"Ġfetch":4515,"Ġpublic":4516,"Ġautumn":4517,"fashion":4518,"Ġevent":4519,"seus":4520,"Ġsha":4521,"Ġnoble":4522,"ails":4523,"Ġcareless":4524,"Ġdescri":4525,"ĠIsland":4526,"Ġcraw":4527,"Ġanimal":4528,"Ġvelve":4529,"Ġlim":4530,"Ġbrid":4531,"Ġmoving":4532,"Ġbargain":4533,"Ġwarning":4534,"Ġwisdom":4535,"Ġfolded":4536,"Ġbewild":4537,"pan":4538,"Ġahead":4539,"inting":4540,"Ġseason":4541,"unn":4542,"ĠSw":4543,"usted":4544,"eper":4545,"ĠHu":4546,"ection":4547,"Ġremarked":4548,"Ġretorted":4549,"fortun":4550,"ĠDoctor":4551,"Ġgladly":4552,"Ġstartled":4553,"ĠGray":4554,"Ġmounted":4555,"Ġfrost":4556,"Ġhorns":4557,"Ġcloak":4558,"Ġhay":4559,"Ġber":4560,"Ġwashed":4561,"Ġech":4562,"Ġforced":4563,"unning":4564,"ĠTell":4565,"Ġprospect":4566,"Ġcouple":4567,"HAT":4568,"utely":4569,"Ġtower":4570,"oke":4571,"ella":4572,"Ġplans":4573,"Ġfever":4574,"ares":4575,"Ġamused":4576,"aughters":4577,"Ġsniff":4578,"ĠTheod":4579,"hetic":4580,"iar":4581,"Ġmouse":4582,"Ġcave":4583,"ism":4584,"Ġbeach":4585,"Ġfrag":4586,"ĠCol":4587,"Ġprevent":4588,"ĠEliz":4589,"Ġfamiliar":4590,"Nothing":4591,"Ġleaning":4592,"Ġnaughty":4593,"Ġribb":4594,"kins":4595,"Ġsouth":4596,"Ġbal":4597,"Ġhes":4598,"answ":4599,"Ġgrandfather":4600,"Ġhare":4601,"Ġrev":4602,"Ġsevere":4603,"Ġshiver":4604,"ĠSilver":4605,"ĠSoph":4606,"umed":4607,"Ġfriendship":4608,"Ġdreaming":4609,"Ġeasier":4610,"Ġthankful":4611,"Ġdollars":4612,"Ġmysterious":4613,"Ind":4614,"Ġfought":4615,"Ġfaded":4616,"Ġmap":4617,"Ġforty":4618,"Ġmoss":4619,"anging":4620,"attering":4621,"ecause":4622,"ette":4623,"Ġproposed":4624,"Ġgrinned":4625,"Ġign":4626,"Ġthread":4627,"esh":4628,"ĠMill":4629,"ĠSally":4630,"Ġmanse":4631,"Ġsettle":4632,"Ġsolemnly":4633,"Ġdemanded":4634,"ci":4635,"do":4636,"Ġhospit":4637,"Ġling":4638,"ading":4639,"ĠIr":4640,"Ġdew":4641,"liest":4642,"Ġprove":4643,"Ġwhistle":4644,"pher":4645,"uke":4646,"Ġtumbled":4647,"Ġpack":4648,"Ġsevent":4649,"ĠAN":4650,"Ġknee":4651,"ĠDou":4652,"Ġglor":4653,"Ġbreaking":4654,"Ġserious":4655,"Ġmirror":4656,"Ġfancied":4657,"Ġlazy":4658,"ifted":4659,"ceived":4660,"Ġdeer":4661,"ops":4662,"ĠHills":4663,"Ġunb":4664,"Ġunl":4665,"Ġcloth":4666,"Ġbeloved":4667,"Ġtales":4668,"Ġbelonged":4669,"glas":4670,"Ġadmiration":4671,"Ġmystery":4672,"con":4673,"Ġsank":4674,"Ġmild":4675,"ands":4676,"Ġloose":4677,"Ġcoff":4678,"Thus":4679,"demanded":4680,"Ġsly":4681,"Ġsne":4682,"atur":4683,"lla":4684,"Ġdish":4685,"Ġdaughters":4686,"Ġlar":4687,"asing":4688,"omest":4689,"Ġstol":4690,"ĠMir":4691,"urely":4692,"Ġclock":4693,"Ġfled":4694,"Ġmoments":4695,"Ġdistr":4696,"Ġsurf":4697,"Ġadventure":4698,"Ġcalmly":4699,"Ġconcluded":4700,"ĠPasture":4701,"sing":4702,"Ġnerv":4703,"Ġdishes":4704,"Everybody":4705,"Ġtorn":4706,"Ġquarrel":4707,"Ġswiftly":4708,"Would":4709,"rent":4710,"Ġmood":4711,"Ġmass":4712,"ative":4713,"Ġdaily":4714,"Ġthirty":4715,"ads":4716,"Ġmeek":4717,"Ġwheel":4718,"Ġprice":4719,"Ġpecul":4720,"Ġhearth":4721,"Ġadmitted":4722,"ugust":4723,"Ġproudly":4724,"ĠBeaver":4725,"Ġsuffer":4726,"Ġsuffered":4727,"Ġdelicious":4728,"Ġpeculiar":4729,"inally":4730,"Ġlend":4731,"ĠLou":4732,"ĠLuc":4733,"Ġanyway":4734,"igned":4735,"Ġemperor":4736,"Ġpossessed":4737,"Ġrecoll":4738,"Ġcircle":4739,"Ġrapt":4740,"Ġfirmly":4741,"Dick":4742,"Your":4743,"rif":4744,"Ġwound":4745,"Ġheed":4746,"ester":4747,"Ġrang":4748,"Ġshed":4749,"Ġmeat":4750,"ĠAy":4751,"ĠPen":4752,"Ġintended":4753,"apter":4754,"Ġoffice":4755,"retty":4756,"Ġcounten":4757,"Ġromance":4758,"Ġanimals":4759,"ĠMajesty":4760,"Ġpillow":4761,"Up":4762,"iott":4763,"pected":4764,"Ġdon":4765,"Ġsty":4766,"ĠCarl":4767,"ĠDora":4768,"ĠGord":4769,"ĠHappy":4770,"Ġener":4771,"Ġthrill":4772,"Ġmarched":4773,"Ġspoiled":4774,"Ġdragged":4775,"Indeed":4776,"Ġbill":4777,"Ġrope":4778,"ĠMag":4779,"ainty":4780,"ĠSlo":4781,"ĠPar":4782,"ĠGiant":4783,"Ġarg":4784,"Ġarrow":4785,"Ġdescend":4786,"Ġslender":4787,"Ġlighted":4788,"Ġrolling":4789,"ylvia":4790,"Ġhigher":4791,"known":4792,"Ġbrilliant":4793,"Ġconscience":4794,"Ġsought":4795,"Ġwaving":4796,"Ġmotion":4797,"Ġdarling":4798,"Ġpipe":4799,"ooping":4800,"raph":4801,"Ġplump":4802,"Ġskill":4803,"Ġforgetting":4804,"Ġslip":4805,"ĠCharlie":4806,"Ġsalt":4807,"Ġsociety":4808,"Ġstolen":4809,"Ġbay":4810,"Ġpur":4811,"Ġbeating":4812,"Ġsav":4813,"Ġchin":4814,"ĠCamp":4815,"igg":4816,"Ġglow":4817,"Ġdrowned":4818,"Ġstreets":4819,"grim":4820,"Ġcrazy":4821,"Ġdisappointment":4822,"Ġscram":4823,"Ġporch":4824,"Grandfather":4825,"Ġrail":4826,"ppy":4827,"ĠFired":4828,"Ġflushed":4829,"Ġscared":4830,"tained":4831,"Ġgenerally":4832,"Ġfavorite":4833,"Mary":4834,"Ġfaster":4835,"Ġdirty":4836,"Ġgarm":4837,"ammy":4838,"Ġshudd":4839,"rop":4840,"Ġoffic":4841,"ĠKate":4842,"Ġperm":4843,"Ġmarble":4844,"Ġwaved":4845,"Ġcapit":4846,"Ġpossibly":4847,"Ġwishes":4848,"Ġhens":4849,"overn":4850,"Ġsuggest":4851,"ĠFiredra":4852,"Look":4853,"Ġbid":4854,"Ġpuff":4855,"semb":4856,"Ġsep":4857,"ilty":4858,"ĠNed":4859,"Ġcrack":4860,"Ġstronger":4861,"Ġdriving":4862,"Ġfalse":4863,"Ġcarpet":4864,"Ġpromptly":4865,"fashioned":4866,"Ġvelvet":4867,"Very":4868,"xed":4869,"Ġlones":4870,"arth":4871,"ĠBuzz":4872,"Ġspear":4873,"Ġfeat":4874,"Ġamid":4875,"icks":4876,"Ġhearty":4877,"uby":4878,"Ġwandering":4879,"Ġsensible":4880,"ĠHoly":4881,"Ġjudge":4882,"Ġdignity":4883,"ĠDouglas":4884,"cast":4885,"Ġhind":4886,"Ġhomes":4887,"Ġric":4888,"Ġweight":4889,"Ġshowing":4890,"Ġleaped":4891,"ĠRock":4892,"Ġvirt":4893,"Ġarmy":4894,"Ġbits":4895,"Ġattr":4896,"ival":4897,"Ġdangerous":4898,"Ġashore":4899,"Ġeleg":4900,"Ġrule":4901,"da":4902,"mo":4903,"yed":4904,"ites":4905,"raw":4906,"ĠTake":4907,"Ġflour":4908,"Ġprefer":4909,"ption":4910,"Ġglimp":4911,"Uncle":4912,"Ġsouls":4913,"Ġmerchant":4914,"Ġextre":4915,"Ġerrand":4916,"ĠMarshall":4917,"Ġmagnificent":4918,"answered":4919,"Ġglimpse":4920,"Tell":4921,"born":4922,"law":4923,"liness":4924,"Ġtide":4925,"itive":4926,"Ġcush":4927,"Ġthief":4928,"Ġpan":4929,"iday":4930,"Ġstret":4931,"Ġlikewise":4932,"Ġvol":4933,"Ġuns":4934,"Ġaccident":4935,"Ġsteep":4936,"Ġcolor":4937,"headed":4938,"Ġdeparted":4939,"Ġinflu":4940,"Ġescaped":4941,"Ġdiscuss":4942,"ĠElliott":4943,"Ġgifts":4944,"Ġunex":4945,"Ġprivate":4946,"Ġgratitude":4947,"natured":4948,"Ġuncomfortable":4949,"Dan":4950,"Two":4951,"ndar":4952,"Ġnap":4953,"otty":4954,"Ġriding":4955,"ĠMark":4956,"ĠMethod":4957,"Ġlily":4958,"akened":4959,"Ġparts":4960,"ĠPrickly":4961,"Ġsunny":4962,"Ġgazed":4963,"Ġsobbed":4964,"Ġsaddle":4965,"Ġunconscious":4966,"bre":4967,"hand":4968,"lers":4969,"Ġmatch":4970,"Ġstamp":4971,"Ġrum":4972,"ĠAli":4973,"ulty":4974,"ĠCat":4975,"ĠJud":4976,"Ġroots":4977,"Ġflash":4978,"avendar":4979,"ires":4980,"Ġprocess":4981,"Ġcontented":4982,"Ġneeds":4983,"Ġfinish":4984,"Ġcream":4985,"irts":4986,"Ġcheerfully":4987,"Ġgrandmother":4988,"Ġstrike":4989,"Ġridic":4990,"Ġtrotted":4991,"aturday":4992,"rene":4993,"uted":4994,"Ġrude":4995,"Ġcharge":4996,"Ġdearest":4997,"Ġfee":4998,"lier":4999,"Ġreport":5000,"Ġdearly":5001,"Ġsleepy":5002,"Ġsteady":5003,"Ġdouble":5004,"Ġpapers":5005,"Ġscarlet":5006,"hole":5007,"min":5008,"Ġcell":5009,"iring":5010,"oped":5011,"Ġboats":5012,"ummer":5013,"Ġdisgr":5014,"Ġhorrid":5015,"Ġdeeply":5016,"Finally":5017,"ipping":5018,"vest":5019,"erc":5020,"acles":5021,"Ġweeping":5022,"ĠBer":5023,"outed":5024,"ĠLone":5025,"ĠLavendar":5026,"Ġprim":5027,"Ġcock":5028,"Ġthrone":5029,"Ġpossession":5030,"Ġharbour":5031,"Ġhistory":5032,"bly":5033,"dge":5034,"sed":5035,"Ġwre":5036,"Ġwave":5037,"Ġfed":5038,"Ġheap":5039,"orough":5040,"Ġsugar":5041,"Ġspace":5042,"Ġvac":5043,"Ġanyhow":5044,"Ġpeas":5045,"Ġmothers":5046,"leside":5047,"Ġholy":5048,"Ġbeautifully":5049,"Ġsilently":5050,"Ġrested":5051,"onday":5052,"ruct":5053,"Ġcompanions":5054,"Ġparlor":5055,"eanwhile":5056,"Ġbundle":5057,"Ġboughs":5058,"Ġcountenance":5059,"ĠGordon":5060,"OM":5061,"Take":5062,"Ġpatch":5063,"Ġstately":5064,"ĠSig":5065,"Ġfrank":5066,"thought":5067,"Ġcomb":5068,"Ġhouseke":5069,"Ġcrit":5070,"ĠHeaven":5071,"Ġenth":5072,"ĠShel":5073,"Ġnative":5074,"Ġpolit":5075,"Ġinsisted":5076,"ĠRobert":5077,"Ġengaged":5078,"Ġwarned":5079,"Ġlearning":5080,"Ġsize":5081,"Ġbuck":5082,"Ġbend":5083,"omin":5084,"Ġsewing":5085,"ĠSaturday":5086,"ĠWith":5087,"Ġchose":5088,"quil":5089,"ĠCam":5090,"Ġambit":5091,"Ġclaws":5092,"Ġthrowing":5093,"ĠYear":5094,"Ġcurled":5095,"Ġspoil":5096,"Ġbravely":5097,"Ġsticks":5098,"Ġdismay":5099,"Ġmidnight":5100,"ĠCharlotte":5101,"Ġvarious":5102,"Are":5103,"Gr":5104,"Ġtie":5105,"Ġmile":5106,"Ġseated":5107,"ales":5108,"ĠAugust":5109,"ĠCousin":5110,"Ġjest":5111,"Ġjeal":5112,"Ġhost":5113,"izing":5114,"Ġobeyed":5115,"Ġconfidence":5116,"Ġfreed":5117,"Ġoccurred":5118,"Ġtreasures":5119,"Ġnaturally":5120,"ĠMolly":5121,"Ġmortal":5122,"Ġtreated":5123,"OOK":5124,"ĠIngleside":5125,"ĠHugh":5126,"ĠBuzzard":5127,"Good":5128,"work":5129,"Ġtid":5130,"Ġsack":5131,"Ġbonn":5132,"Ġtore":5133,"Ġlan":5134,"Ġgoose":5135,"Ġshepher":5136,"unty":5137,"ĠSch":5138,"Ġseeking":5139,"ĠCour":5140,"ssing":5141,"ĠOl":5142,"Ġcleared":5143,"Ġrealized":5144,"Ġpersu":5145,"Ġprayers":5146,"Ġmessage":5147,"Ġaccompl":5148,"Jack":5149,"Meanwhile":5150,"com":5151,"fessor":5152,"go":5153,"gest":5154,"Ġfuss":5155,"Ġcop":5156,"Ġpic":5157,"Ġshelter":5158,"Ġsoot":5159,"ilies":5160,"ĠSee":5161,"Ġplung":5162,"berry":5163,"Ġstring":5164,"Ġserve":5165,"Ġdresses":5166,"Ġcapt":5167,"Ġdecidedly":5168,"Ġparticularly":5169,"ĠFiredrake":5170,"OT":5171,"Ġfarmer":5172,"Ġfern":5173,"Ġthorough":5174,"Ġstag":5175,"ĠSnow":5176,"ĠDon":5177,"ĠTw":5178,"Ġboast":5179,"Ġconqu":5180,"olog":5181,"osing":5182,"boy":5183,"Ġappet":5184,"Ġdesired":5185,"Ġawoke":5186,"Ġmountains":5187,"Ġneighbor":5188,"Ġyonder":5189,"Ġbriskly":5190,"ĠCampbell":5191,"Ġunexpected":5192,"Pe":5193,"ford":5194,"mond":5195,"Ġbat":5196,"Ġcong":5197,"Ġthirst":5198,"Ġrate":5199,"Ġrush":5200,"ĠMonday":5201,"ĠDeer":5202,"Ġabroad":5203,"Ġbod":5204,"Ġflag":5205,"Ġglory":5206,"Ġstocking":5207,"Ġresult":5208,"Ġfastened":5209,"Ġexcuse":5210,"Ġdepart":5211,"Ġdevil":5212,"Ġfortun":5213,"Ġselfish":5214,"Ġtrembled":5215,"ĠMistah":5216,"Ġneglect":5217,"ĠIsabel":5218,"May":5219,"ov":5220,"va":5221,"hebe":5222,"Ġcunning":5223,"ooke":5224,"Ġgovern":5225,"ĠGovern":5226,"Ġven":5227,"Ġotherwise":5228,"osen":5229,"Ġpartly":5230,"Ġbeds":5231,"Ġrelie":5232,"Ġreceive":5233,"Ġinquired":5234,"ĠGolden":5235,"Ġlanguage":5236,"ĠSloane":5237,"low":5238,"uk":5239,"ĠZ":5240,"rels":5241,"Ġfle":5242,"Ġpause":5243,"ĠHis":5244,"ĠBrooke":5245,"Ġterr":5246,"Ġrefuse":5247,"ĠShadow":5248,"Ġworthy":5249,"Ġenemies":5250,"ĠAndrews":5251,"Ġinterrupted":5252,"ae":5253,"Ġwing":5254,"Ġbother":5255,"era":5256,"Ġnamed":5257,"utch":5258,"ĠCur":5259,"ĠHill":5260,"Ġswear":5261,"Soon":5262,"ggy":5263,"Ġpainted":5264,"ĠRosemary":5265,"ĠProfessor":5266,"ĠOwen":5267,"ĠWinds":5268,"Ġposition":5269,"gress":5270,"Ġming":5271,"atic":5272,"Ġcart":5273,"Ġcure":5274,"asm":5275,"Ġpoured":5276,"icia":5277,"ĠSylvia":5278,"Ġclub":5279,"Ġbetr":5280,"ĠYe":5281,"Ġfuneral":5282,"Ġbearing":5283,"Alice":5284,"Ġgazing":5285,"Ġdismal":5286,"Ġpoetry":5287,"Ġoak":5288,"enger":5289,"Ġgaily":5290,"sequ":5291,"Ġstaff":5292,"Ġrisk":5293,"Ġwealth":5294,"Ġdispl":5295,"Ġcurly":5296,"Ġcurls":5297,"Ġwooden":5298,"Ġaddress":5299,"Ġtemp":5300,"Ġadvant":5301,"Ġpolitely":5302,"ancholy":5303,"Ġancient":5304,"Black":5305,"Ġlonesome":5306,"Ġlots":5307,"Ġple":5308,"Ġgest":5309,"ament":5310,"Ġtrim":5311,"Ġgoodness":5312,"Ġproceeded":5313,"ĠBrother":5314,"Ġlightly":5315,"theless":5316,"ĠFrom":5317,"Ġapron":5318,"Ġtorment":5319,"Ġgrove":5320,"Ġmarket":5321,"Ġfloated":5322,"fly":5323,"off":5324,"tail":5325,"heel":5326,"Ġwreat":5327,"atched":5328,"Ġpudd":5329,"stone":5330,"ĠWall":5331,"Ġbrow":5332,"Ġpointing":5333,"Ġcler":5334,"lies":5335,"Ġglim":5336,"Ġgreed":5337,"ertainly":5338,"Ġforeign":5339,"Ġease":5340,"ettle":5341,"Ġincre":5342,"Ġmelancholy":5343,"ĠOnce":5344,"Mother":5345,"ben":5346,"nut":5347,"ts":5348,"ux":5349,"Ġwip":5350,"Ġmater":5351,"Ġlace":5352,"icing":5353,"Ġstub":5354,"alph":5355,"Ġshrie":5356,"Ġchosen":5357,"ĠTink":5358,"Ġhanded":5359,"Ġflight":5360,"Ġflame":5361,"Ġtwins":5362,"Ġcrow":5363,"Ġhelping":5364,"Ġdirectly":5365,"Ġtravel":5366,"Ġcommanded":5367,"Ġstyle":5368,"Ġsepar":5369,"Rose":5370,"eel":5371,"ns":5372,"zed":5373,"Ġbul":5374,"Ġlack":5375,"essel":5376,"Ġashes":5377,"ĠME":5378,"Ġshade":5379,"ĠHaw":5380,"Ġprev":5381,"Ġglitter":5382,"Ġresist":5383,"Ġsucceeded":5384,"Ġwishing":5385,"ĠAllan":5386,"Ġquarter":5387,"ĠAnnie":5388,"ĠPolly":5389,"Chapter":5390,"Ġmurmured":5391,"Ġsuspected":5392,"Ġreproach":5393,"Ġberries":5394,"Sammy":5395,"iance":5396,"nes":5397,"Ġuttered":5398,"Ġbite":5399,"Ġcred":5400,"Ġgasped":5401,"Ġstump":5402,"Ġshaw":5403,"Ġmend":5404,"ths":5405,"ĠTH":5406,"Ġplum":5407,"ĠHa":5408,"Ġloves":5409,"Ġpoison":5410,"Ġclaim":5411,"Ġclapped":5412,"Ġglo":5413,"Ġhelpless":5414,"Ġdesert":5415,"Ġguide":5416,"Ġcomforted":5417,"Ġsquire":5418,"Ġloudly":5419,"ĠPeople":5420,"Ġgarret":5421,"Ġjealous":5422,"cing":5423,"rant":5424,"Ġwretched":5425,"Ġhath":5426,"Ġbidd":5427,"Ġcries":5428,"Ġinvent":5429,"ĠBecause":5430,"ĠPoor":5431,"ander":5432,"Ġhappens":5433,"Ġpassage":5434,"Ġconsent":5435,"Ġwearing":5436,"ĠChristian":5437,"Ġassured":5438,"Ġchoice":5439,"Ġdifficulty":5440,"Ġsacrif":5441,"Susan":5442,"itions":5443,"ator":5444,"Ġyield":5445,"usi":5446,"Ġbrush":5447,"ĠOct":5448,"Ġcalls":5449,"Ġmaybe":5450,"Ġminds":5451,"Ġobey":5452,"Ġawa":5453,"Ġremembering":5454,"Ġeduc":5455,"Ġimagination":5456,"Ġsurve":5457,"Ġswimming":5458,"Ġamusement":5459,"Ġidle":5460,"ĠMorgan":5461,"Ġshepherd":5462,"IV":5463,"faced":5464,"Ġpaw":5465,"Ġgn":5466,"etru":5467,"Ġrabbit":5468,"allow":5469,"ĠSouth":5470,"ĠRain":5471,"Ġvessel":5472,"Ġdownstairs":5473,"Ġclasped":5474,"coat":5475,"anks":5476,"ĠBrit":5477,"Ġsentiment":5478,"Ġresc":5479,"Ġangrily":5480,"Ġcomfortably":5481,"Ġafford":5482,"Ġfigures":5483,"Ġbuilding":5484,"Ġpirates":5485,"ĠSpirit":5486,"Fel":5487,"Many":5488,"Ġarose":5489,"Ġmant":5490,"Ġsaf":5491,"Ġdeck":5492,"Ġblowing":5493,"Ġflashed":5494,"anges":5495,"Ġstove":5496,"ocking":5497,"Ġtails":5498,"Ġclosely":5499,"Ġadmit":5500,"Ġadmired":5501,"Ġreflected":5502,"Ġdestro":5503,"iscilla":5504,"Ġcircum":5505,"Ġbirthday":5506,"Ġbreeze":5507,"ĠGardens":5508,"Ġenthusi":5509,"Diana":5510,"nic":5511,"ody":5512,"Ġtest":5513,"itable":5514,"Ġlift":5515,"Ġlines":5516,"ency":5517,"Ġpred":5518,"ĠRay":5519,"Ġproof":5520,"Ġtrout":5521,"ems":5522,"ĠYOU":5523,"Ġbarrel":5524,"white":5525,"Ġmajesty":5526,"Ġnervous":5527,"Ġextreme":5528,"ID":5529,"aved":5530,"iven":5531,"Ġmare":5532,"Ġpil":5533,"Ġpage":5534,"ĠHIS":5535,"Ġexist":5536,"Ġexamp":5537,"Ġtran":5538,"Ġcomr":5539,"Ġcoach":5540,"ĠEx":5541,"ission":5542,"ĠJoy":5543,"Ġbecoming":5544,"ucky":5545,"Ġmarked":5546,"Ġparted":5547,"Ġsnake":5548,"Ġbuff":5549,"Ġprize":5550,"Ġabsor":5551,"Ġhunters":5552,"Ġscream":5553,"Ġharbor":5554,"Ġdisturbed":5555,"Ġheavily":5556,"Ġcapital":5557,"AD":5558,"Jerry":5559,"pes":5560,"Ġaven":5561,"Ġfest":5562,"Ġdainty":5563,"Ġlawn":5564,"Ġpail":5565,"Ġforce":5566,"oore":5567,"Ġrad":5568,"ĠTim":5569,"Ġflesh":5570,"Ġcoast":5571,"lia":5572,"Ġgives":5573,"Ġstopping":5574,"Ġlanded":5575,"Ġadmire":5576,"Ġtenderly":5577,"Ġdusty":5578,"Ġamazement":5579,"Ġsurrounded":5580,"Instead":5581,"Out":5582,"cup":5583,"eep":5584,"Ġwounded":5585,"Ġhired":5586,"Ġmal":5587,"Ġtossed":5588,"ingu":5589,"Ġinsp":5590,"iments":5591,"rah":5592,"ĠFirst":5593,"andal":5594,"atherine":5595,"Ġunknown":5596,"Ġhousehold":5597,"Ġdrunk":5598,"Ġsweetest":5599,"Ġbanks":5600,"Ġopportun":5601,"Ġwhistling":5602,"ĠMinot":5603,"Ġproduced":5604,"Ġborne":5605,"Ġwrapped":5606,"AY":5607,"ST":5608,"ball":5609,"hi":5610,"lm":5611,"sion":5612,"Ġhy":5613,"Ġhood":5614,"Ġchill":5615,"Ġvig":5616,"Ġwildly":5617,"Ġdepend":5618,"Ġeleven":5619,"Ġinfluence":5620,"Ġlantern":5621,"ĠRainbow":5622,"say":5623,"reg":5624,"rees":5625,"Ġthresh":5626,"ases":5627,"Ġpup":5628,"Ġpicking":5629,"ooked":5630,"ustomed":5631,"ĠPres":5632,"ĠPhebe":5633,"ĠFord":5634,"abby":5635,"Ġvoy":5636,"issy":5637,"Ġstrangers":5638,"Ġdoorstep":5639,"Ġpretend":5640,"Ġsmaller":5641,"Ġangel":5642,"Ġmonster":5643,"Ġsitu":5644,"Ġrecovered":5645,"Ġproperly":5646,"Ġpunishment":5647,"ĠIndian":5648,"Ġstealing":5649,"Ġsubjects":5650,"Ġtricks":5651,"Ġavo":5652,"Ġunusual":5653,"Ġfisher":5654,"Blacky":5655,"Ġexample":5656,"Amy":5657,"sm":5658,"Ġtin":5659,"Ġdumb":5660,"Ġpier":5661,"Ġshop":5662,"Ġvast":5663,"Ġswung":5664,"Ġdecide":5665,"ĠPlum":5666,"Ġrapidly":5667,"Ġcounsel":5668,"Ġcurtains":5669,"Ġignor":5670,"Ġbonnet":5671,"Our":5672,"Ġfain":5673,"ĠIS":5674,"Ġviolet":5675,"Ġdaylight":5676,"ĠEvery":5677,"Ġvisible":5678,"Ġwiser":5679,"Ġbowl":5680,"Ġcondition":5681,"Ġlucky":5682,"Ġmoral":5683,"Ġbud":5684,"inger":5685,"Ġpip":5686,"acher":5687,"Ġratt":5688,"Ġraven":5689,"ĠMax":5690,"Ġseas":5691,"Ġtimid":5692,"Ġroar":5693,"Ġafterward":5694,"Ġpeeping":5695,"Ġkinds":5696,"Unc":5697,"Ġdrops":5698,"Ġoccup":5699,"Ġabsence":5700,"Ġcoward":5701,"Ġteaching":5702,"Ġcrowded":5703,"Ġmedic":5704,"Ġfavourite":5705,"Ġprinces":5706,"ĠLouisa":5707,"gment":5708,"iter":5709,"Ġmut":5710,"Ġcaut":5711,"Ġniece":5712,"Ġpace":5713,"roid":5714,"geon":5715,"Ġintell":5716,"Ġexerc":5717,"ĠEn":5718,"Ġbeggar":5719,"Ġkeeps":5720,"Ġcutting":5721,"aimie":5722,"ugged":5723,"Ġbirch":5724,"Ġannounced":5725,"Ġprisoner":5726,"Ġblessing":5727,"ĠNorman":5728,"Jimmy":5729,"Ġnursery":5730,"Had":5731,"five":5732,"hile":5733,"kind":5734,"kward":5735,"Ġbrand":5736,"llen":5737,"Ġdried":5738,"Ġnic":5739,"ĠMoore":5740,"ĠWas":5741,"ackleton":5742,"ĠJumper":5743,"ĠLion":5744,"ĠRuby":5745,"Ġplate":5746,"box":5747,"aleb":5748,"Ġsermon":5749,"Ġdistinct":5750,"Ġfearful":5751,"ĠLaurence":5752,"Ġjewels":5753,"Ġthreshold":5754,"Ben":5755,"rise":5756,"Ġtoes":5757,"Ġciv":5758,"Ġcooking":5759,"sters":5760,"Ġur":5761,"Ġshown":5762,"Ġhappier":5763,"Ġours":5764,"meric":5765,"Ġentertain":5766,"Ġpresented":5767,"Ġhunger":5768,"ivid":5769,"Ġexciting":5770,"Ġexpecting":5771,"Ġtravell":5772,"uttering":5773,"Ġsongs":5774,"ĠEmil":5775,"Ġprotested":5776,"Ġsolitary":5777,"Ġmurmur":5778,"Ġecho":5779,"Ġrelieved":5780,"Ġcircumst":5781,"First":5782,"Sc":5783,"UR":5784,"sn":5785,"Ġbust":5786,"Ġemer":5787,"Ġanch":5788,"Ġsho":5789,"aper":5790,"ĠHouse":5791,"Ġgroup":5792,"Ġmoan":5793,"Ġscrat":5794,"Ġdisg":5795,"Ġfinest":5796,"Ġhumble":5797,"Ġpulling":5798,"Ġships":5799,"Ġsoldier":5800,"Ġannoy":5801,"Ġearnestly":5802,"Ġfiercely":5803,"Ġaccepted":5804,"Ġdwelt":5805,"Ġslippers":5806,"Ġplunged":5807,"Ġappetite":5808,"heera":5809,"Ġax":5810,"Ġdashed":5811,"Ġlately":5812,"Ġrare":5813,"quet":5814,"ĠJason":5815,"Ġbol":5816,"Ġpose":5817,"agheera":5818,"ĠEur":5819,"Ġtells":5820,"osition":5821,"Ġpreser":5822,"Ġdistingu":5823,"Ġtrap":5824,"Ġinterv":5825,"Ġdolls":5826,"Ġmagician":5827,"Ġastonishment":5828,"Ġaspect":5829,"Ġsteadily":5830,"Ġridiculous":5831,"Ġwreath":5832,"CK":5833,"Gilbert":5834,"wa":5835,"Ġ2":5836,"Ġlimp":5837,"ĠIan":5838,"Ġyards":5839,"ighted":5840,"ĠBel":5841,"Ġknock":5842,"Ġchat":5843,"Ġchain":5844,"Ġsport":5845,"ĠDor":5846,"Ġthoughtfully":5847,"Ġsilvery":5848,"Ġlights":5849,"Ġinstinct":5850,"Ġnicely":5851,"ĠSpotty":5852,"Ġfloating":5853,"Ġamazed":5854,"Ġdonkey":5855,"Ġcage":5856,"arse":5857,"Ġnois":5858,"ĠTre":5859,"ĠRalph":5860,"ousins":5861,"Ġplant":5862,"Ġclung":5863,"Ġwaters":5864,"eremon":5865,"Ġwinds":5866,"atcham":5867,"Ġentrance":5868,"upon":5869,"Ġdropping":5870,"Ġstands":5871,"phant":5872,"Ġpatiently":5873,"Ġmistaken":5874,"Ġpasture":5875,"Ġabsurd":5876,"Ġapproached":5877,"ĠCarrier":5878,"Ġdeserted":5879,"Ġjackal":5880,"Ġembroid":5881,"Ġchicken":5882,"Ġbench":5883,"ĠTurtle":5884,"Ġbewildered":5885,"ĠSigurd":5886,"Ġstockings":5887,"Ġshawl":5888,"Ġbath":5889,"idney":5890,"Ġstat":5891,"ĠDot":5892,"Ġintrod":5893,"Ġunfortun":5894,"Ġench":5895,"ĠMartha":5896,"ĠPriscilla":5897,"Ġdrinking":5898,"izz":5899,"Ġmaidens":5900,"Ġfrozen":5901,"Ġdevoted":5902,"Ġfortnight":5903,"Ġleading":5904,"Ġstirred":5905,"Ġacquaint":5906,"Something":5907,"Ġpraise":5908,"ĠCourt":5909,"mber":5910,"pri":5911,"Ġdaz":5912,"Ġram":5913,"ĠMart":5914,"Ġdove":5915,"ĠDay":5916,"ĠGive":5917,"Ġpopped":5918,"Ġscore":5919,"Ġhorribly":5920,"Ġguilty":5921,"Ġawhile":5922,"Ġsummon":5923,"Ġvisited":5924,"Ġcreep":5925,"ĠBenn":5926,"Ġcatching":5927,"ĠEmily":5928,"Ġguns":5929,"Ġmentioned":5930,"Ġdwarf":5931,"Ġdiamonds":5932,"cu":5933,"Ġauth":5934,"Ġcousins":5935,"Ġceremon":5936,"Ġbee":5937,"irg":5938,"alo":5939,"Ġupset":5940,"ĠSn":5941,"ĠBoy":5942,"ĠPye":5943,"Ġnoon":5944,"Ġabrupt":5945,"ĠHigh":5946,"Ġgrad":5947,"berries":5948,"Ġturns":5949,"ĠChug":5950,"Ġbehave":5951,"Ġslave":5952,"Ġuseless":5953,"Ġtouching":5954,"Ġmerrily":5955,"Ġscreamed":5956,"Ġagreeable":5957,"Ġpigs":5958,"Ġrespons":5959,"Ġaccording":5960,"Ġwistfully":5961,"Ġglorious":5962,"Ġgloves":5963,"Farmer":5964,"Ġble":5965,"Ġmice":5966,"anz":5967,"Ġpour":5968,"Ġgates":5969,"adm":5970,"icard":5971,"Ġstock":5972,"Ġsees":5973,"Ġshock":5974,"ĠAquil":5975,"quent":5976,"ĠJune":5977,"ĠGill":5978,"ĠTackleton":5979,"igs":5980,"Ġamb":5981,"Ġimper":5982,"Ġperple":5983,"cod":5984,"Ġdearie":5985,"Ġslee":5986,"Ġretired":5987,"Ġresting":5988,"ĠDog":5989,"Ġentreat":5990,"Ġspruce":5991,"Ġordinary":5992,"Ġgraveyard":5993,"Ġsuffering":5994,"ĠScot":5995,"Ġarranged":5996,"Ġbells":5997,"Ġdesperate":5998,"Ġcabin":5999,"Ġimmensely":6000,"ĠColonel":6001,"Ġseverely":6002,"ĠJoyce":6003,"ĠAquila":6004,"Father":6005,"Ġtip":6006,"Ġhook":6007,"Ġfasc":6008,"iture":6009,"Ġmix":6010,"Ġtops":6011,"Ġhem":6012,"ĠMont":6013,"Ġshabby":6014,"Ġkettle":6015,"ĠBull":6016,"ĠBless":6017,"ĠTHAT":6018,"umpty":6019,"isten":6020,"inkled":6021,"Ġconsequ":6022,"Ġjustice":6023,"Ġflies":6024,"Ġpressed":6025,"ĠBlair":6026,"uffy":6027,"Ġlands":6028,"Ġprayed":6029,"ground":6030,"Ġimagined":6031,"ĠAlex":6032,"glass":6033,"Ġmourn":6034,"Ġcherry":6035,"Ġwidow":6036,"Ġcompletely":6037,"icardo":6038,"Down":6039,"great":6040,"Ġfitted":6041,"Ġcrew":6042,"asping":6043,"otted":6044,"icy":6045,"ĠAmeric":6046,"ĠCon":6047,"cks":6048,"agger":6049,"Ġwrath":6050,"Ġsnapped":6051,"Ġreturning":6052,"ibility":6053,"Ġsigns":6054,"Ġartist":6055,"Everything":6056,"Ġmessenger":6057,"Ġparce":6058,"Ġacquainted":6059,"Ġpearls":6060,"Ġenvy":6061,"Ġdisgrace":6062,"AT":6063,"CB":6064,"Give":6065,"Or":6066,"Qu":6067,"bird":6068,"vol":6069,"Ġtucked":6070,"Ġfulf":6071,"Ġtomb":6072,"Ġheight":6073,"Ġdue":6074,"Ġinh":6075,"Ġwhip":6076,"Ġumb":6077,"irm":6078,"Ġripp":6079,"Ġnotion":6080,"ĠWould":6081,"ĠJed":6082,"Ġwherever":6083,"Ġsunlight":6084,"Ġimpul":6085,"Ġcontempt":6086,"Ġfootstep":6087,"Ġdisappear":6088,"Ġmermaid":6089,"Ġtrial":6090,"Ġscarce":6091,"ippa":6092,"Ġbeaten":6093,"Neither":6094,"Ġgloomy":6095,"Ġprettiest":6096,"Ġgathering":6097,"ĠWolf":6098,"Ġimpression":6099,"Ġelegant":6100,"Ġgesture":6101,"CE":6102,"Ġcattle":6103,"Ġlux":6104,"Ġthither":6105,"Ġgri":6106,"ician":6107,"Ġshrew":6108,"ĠSome":6109,"Ġliber":6110,"Ġwhence":6111,"ĠHester":6112,"urned":6113,"Ġarch":6114,"Ġwolves":6115,"shouted":6116,"ĠYoung":6117,"clam":6118,"ĠRedmond":6119,"Ġanxiety":6120,"ĠNothing":6121,"Ġwander":6122,"Ġpockets":6123,"Ġgazelle":6124,"Ġphys":6125,"Ġswallowed":6126,"Ġfeatures":6127,"Ġopportunity":6128,"Ġumbre":6129,"More":6130,"Ġapt":6131,"inal":6132,"ithe":6133,"ision":6134,"Ġdamp":6135,"Ġinj":6136,"Ġstooped":6137,"Ġweep":6138,"illian":6139,"Ġshoe":6140,"elling":6141,"Ġchased":6142,"quis":6143,"Ġexch":6144,"Ġthoughtful":6145,"olate":6146,"Ġhopped":6147,"Ġpersons":6148,"Ġjumping":6149,"Ġmercy":6150,"ĠGods":6151,"Ġplanned":6152,"Ġportra":6153,"Another":6154,"Ġsurface":6155,"Ġgarments":6156,"bor":6157,"bel":6158,"lain":6159,"mons":6160,"pent":6161,"Ġbraid":6162,"Ġwasted":6163,"Ġwhither":6164,"Ġstal":6165,"Ġruff":6166,"ĠTO":6167,"Ġlect":6168,"Ġcliff":6169,"Ġdisag":6170,"Ġchildish":6171,"Ġremoved":6172,"Ġemp":6173,"Ġaccustomed":6174,"Ġconduct":6175,"cules":6176,"Ġstudying":6177,"Ġsacred":6178,"Ġtremend":6179,"Ġadvantage":6180,"Ġmedicine":6181,"ĠMartin":6182,"fty":6183,"phew":6184,"vor":6185,"you":6186,"Ġbub":6187,"itz":6188,"Ġheaps":6189,"Ġlame":6190,"lebr":6191,"Ġnephew":6192,"ĠSim":6193,"ĠPant":6194,"Ġsuited":6195,"Ġfrown":6196,"ĠGus":6197,"abeth":6198,"ĠRome":6199,"Ġroast":6200,"Ġnowhere":6201,"Ġtwisted":6202,"Ġached":6203,"Ġmarch":6204,"iah":6205,"Ġconsented":6206,"ĠGrant":6207,"Ġfurious":6208,"Ġabsol":6209,"ounce":6210,"Ġsailor":6211,"Ġparlour":6212,"Ġpicnic":6213,"Ġcredit":6214,"Ġabsorbed":6215,"Ġenchanted":6216,"cip":6217,"master":6218,"Ġtap":6219,"Ġaim":6220,"Ġmedd":6221,"ĠMer":6222,"Ġkick":6223,"ĠDes":6224,"ĠRoy":6225,"istol":6226,"oles":6227,"Ġbelt":6228,"Ġtele":6229,"Those":6230,"Ġforgiven":6231,"Ġsteel":6232,"Ġvision":6233,"Ġconfusion":6234,"Ġburden":6235,"they":6236,"Ġclearly":6237,"Ġsubs":6238,"Ġfaithfully":6239,"Ġsorrowful":6240,"Ġcelebr":6241,"ĠProv":6242,"Ġconcert":6243,"Ġutterly":6244,"Ġsult":6245,"Johnny":6246,"Ġinclined":6247,"Ġribbon":6248,"ĠIrving":6249,"Ġglittering":6250,"Ġbidding":6251,"Ġsafety":6252,"Ġscratched":6253,"Could":6254,"IR":6255,"aqu":6256,"bab":6257,"Ġtent":6258,"Ġfountain":6259,"ington":6260,"Ġnut":6261,"sey":6262,"Ġrous":6263,"Ġbutton":6264,"udent":6265,"Ġappre":6266,"Ġawfully":6267,"Ġgenerous":6268,"Ġcomplain":6269,"Ġscreaming":6270,"Ġboldly":6271,"Ġcloset":6272,"Ġwagon":6273,"Ġpantry":6274,"ouraged":6275,"ĠNeil":6276,"Ġfeeble":6277,"Both":6278,"Can":6279,"bur":6280,"hem":6281,"heart":6282,"arily":6283,"ani":6284,"Ġpaws":6285,"Ġshower":6286,"ĠSol":6287,"Ġnod":6288,"ĠRicardo":6289,"Ġpron":6290,"Ġclut":6291,"Ġundert":6292,"lesome":6293,"Ġsket":6294,"Ġawkward":6295,"Ġfourth":6296,"Ġcollar":6297,"ograph":6298,"Ġmirth":6299,"Ġdeserve":6300,"Ġdamsel":6301,"Ġscrambled":6302,"Ġmingled":6303,"Again":6304,"Ġorig":6305,"Ġhumb":6306,"Ġbows":6307,"Ġthorn":6308,"Ġbees":6309,"Ġseal":6310,"alt":6311,"cean":6312,"ĠSu":6313,"Ġchase":6314,"ĠCal":6315,"Ġorn":6316,"Ġtrump":6317,"Ġtracks":6318,"Ġfirs":6319,"Ġsnug":6320,"Ġends":6321,"Ġresent":6322,"Ġschol":6323,"Ġtrip":6324,"Ġexpressed":6325,"ĠNana":6326,"owder":6327,"ĠIndeed":6328,"Ġragged":6329,"Ġefforts":6330,"Ġblossoms":6331,"ĠMiller":6332,"Bowser":6333,"EL":6334,"GH":6335,"VER":6336,"lor":6337,"water":6338,"Ġaid":6339,"Ġdimp":6340,"Ġlunch":6341,"Ġstair":6342,"ĠMatcham":6343,"ĠAunty":6344,"ĠPetru":6345,"ulted":6346,"ument":6347,"Ġunse":6348,"Ġboyish":6349,"Ġwoe":6350,"Ġappeal":6351,"Ġadorn":6352,"Ġrelig":6353,"Ġmeantime":6354,"Ġassure":6355,"Ġartic":6356,"Ġbounded":6357,"Ġfailure":6358,"Ġdeclare":6359,"Ġrespectable":6360,"Ġhurrying":6361,"Ġpunished":6362,"Ġscratch":6363,"Ġrejoiced":6364,"Ġspecial":6365,"Ġdisagree":6366,"aqueline":6367,"IM":6368,"Nan":6369,"Se":6370,"vous":6371,"Ġbas":6372,"Ġfan":6373,"Ġcult":6374,"Ġthump":6375,"Ġped":6376,"Ġpies":6377,"Ġwhirl":6378,"acob":6379,"Ġhaunted":6380,"Ġstage":6381,"Ġrent":6382,"ĠBible":6383,"ĠAvery":6384,"Ġknitting":6385,"Ġdebt":6386,"ĠHim":6387,"Ġrobe":6388,"istle":6389,"Ġscamp":6390,"ĠChar":6391,"Ġslim":6392,"mee":6393,"Ġobed":6394,"Ġsucceed":6395,"Ġmurd":6396,"ĠCarol":6397,"Ġarrange":6398,"Ġcentre":6399,"Ġconvin":6400,"Ġswallow":6401,"Ġliter":6402,"Ġshells":6403,"Ġgroaned":6404,"Ġprocession":6405,"Ġpudding":6406,"Faith":6407,"fish":6408,"nal":6409,"zing":6410,"Ġiv":6411,"Ġfully":6412,"Ġere":6413,"Ġsticking":6414,"ĠWait":6415,"Ġchina":6416,"ĠFriend":6417,"Ġbrings":6418,"oping":6419,"opher":6420,"apes":6421,"reek":6422,"Ġcoax":6423,"assad":6424,"Ġremorse":6425,"Ġsweep":6426,"Ġpresents":6427,"Ġdressing":6428,"Ġembr":6429,"Ġstepmother":6430,"Ġmuslin":6431,"ĠBeaut":6432,"Ġarrows":6433,"arbour":6434,"ĠTheodora":6435,"ĠSophia":6436,"ĠAND":6437,"ĠMethodist":6438,"Ġhousekeeper":6439,"Ġferns":6440,"Ġthoroughly":6441,"Ġpilgrim":6442,"Lightfoot":6443,"Nor":6444,"aa":6445,"cat":6446,"can":6447,"case":6448,"Ġow":6449,"Ġfi":6450,"Ġfret":6451,"Ġfrog":6452,"Ġdug":6453,"Ġnin":6454,"Ġpurse":6455,"omp":6456,"aches":6457,"Ġrushes":6458,"Ġshield":6459,"ĠBrer":6460,"ĠWH":6461,"Ġwholly":6462,"Ġbrain":6463,"ĠLily":6464,"Ġhandful":6465,"Ġruns":6466,"ensive":6467,"Ġstriking":6468,"Ġtasted":6469,"affy":6470,"Ġpotat":6471,"Ġequal":6472,"ĠJosephine":6473,"Ġeducation":6474,"lorn":6475,"Ġogre":6476,"atives":6477,"Ġdarted":6478,"asel":6479,"vering":6480,"eting":6481,"Ġrud":6482,"Ġkitten":6483,"ession":6484,"ĠCare":6485,"Ġalike":6486,"Ġlovers":6487,"armody":6488,"Ġgirlish":6489,"Ġletting":6490,"Ġrepent":6491,"Ġsunrise":6492,"Ġneighbours":6493,"Ġprepar":6494,"Ġstroke":6495,"ĠLeon":6496,"Ġaccompan":6497,"Ġtwinkle":6498,"Ġholes":6499,"Ġfurniture":6500,"Ġunpleas":6501,"ynth":6502,"Ġsavage":6503,"Ġcellar":6504,"Ġexistence":6505,"BOOK":6506,"Laurie":6507,"Matt":6508,"Ġbord":6509,"itate":6510,"Ġcakes":6511,"isen":6512,"Ġner":6513,"etter":6514,"stal":6515,"Ġrushing":6516,"ĠBagheera":6517,"ĠDel":6518,"Ġleather":6519,"ĠHind":6520,"Ġagony":6521,"Ġtrade":6522,"Ġhandle":6523,"Ġenchant":6524,"Ġfeels":6525,"Ġjob":6526,"Ġattitude":6527,"Ġreluct":6528,"Ġmiser":6529,"lightly":6530,"bridge":6531,"Ġfreely":6532,"Ġnests":6533,"Ġturkey":6534,"Ġcandle":6535,"ĠHercules":6536,"ĠGrandma":6537,"Ġaudience":6538,"Ġcrawled":6539,"Ġauthor":6540,"Ġfascin":6541,"Fr":6542,"Long":6543,"Meg":6544,"Walter":6545,"ointed":6546,"Ġmult":6547,"isp":6548,"Ġlin":6549,"enny":6550,"etown":6551,"Ġhal":6552,"ĠPuck":6553,"ello":6554,"ĠCaleb":6555,"Ġdeed":6556,"aud":6557,"Ġbrim":6558,"inks":6559,"ĠEle":6560,"Ġcares":6561,"gging":6562,"Ġcheered":6563,"Ġretreat":6564,"Ġindul":6565,"Ġindiff":6566,"Ġrealize":6567,"Ġdeeper":6568,"Ġinvitation":6569,"etta":6570,"Ġcolt":6571,"Ġhundreds":6572,"Ġarrival":6573,"___":6574,"Ġviolin":6575,"Ġvalue":6576,"Ġmaple":6577,"Ġfreedom":6578,"People":6579,"Ġbetrayed":6580,"Ġcircumstances":6581,"cr":6582,"groom":6583,"inter":6584,"Ġmate":6585,"Ġgain":6586,"Ġsailing":6587,"unting":6588,"ĠPan":6589,"ĠTroll":6590,"Ġblown":6591,"ĠEs":6592,"Ġpros":6593,"Ġapparent":6594,"ĠPrissy":6595,"Ġdesk":6596,"Ġdrum":6597,"Ġcontri":6598,"ĠVance":6599,"Ġstarting":6600,"Ġempl":6601,"White":6602,"uthbert":6603,"Ġtrag":6604,"Ġmission":6605,"annel":6606,"Ġapproaching":6607,"Ġtrusted":6608,"Ġphil":6609,"Ġruin":6610,"Ġsparkling":6611,"Ġwhispering":6612,"Ġstruggle":6613,"Ġvictory":6614,"Ġimpatiently":6615,"replied":6616,"Ġlarger":6617,"ĠBertha":6618,"ĠShelton":6619,"Ġvoyage":6620,"Ġabruptly":6621,"Ġsultan":6622,"ynthia":6623,"Ġemploy":6624,"Right":6625,"rough":6626,"Ġsom":6627,"Ġoven":6628,"Ġga":6629,"omen":6630,"Ġwashing":6631,"Ġwee":6632,"Ġweap":6633,"ĠMaimie":6634,"Ġmemor":6635,"raham":6636,"Ġdece":6637,"ĠJaqueline":6638,"Ġorph":6639,"ĠRem":6640,"Ġplac":6641,"nect":6642,"Ġgrate":6643,"angled":6644,"arming":6645,"Ġimage":6646,"Ġmarve":6647,"Ġcaw":6648,"ĠThou":6649,"Ġbelief":6650,"Ġlaying":6651,"Ġseriously":6652,"lands":6653,"Ġdistress":6654,"ĠWeasel":6655,"haired":6656,"Ġevident":6657,"Ġsending":6658,"Ġlouder":6659,"ĠBaby":6660,"Ġshrill":6661,"ĠCharlotta":6662,"Ġtempted":6663,"ĠCanad":6664,"Ġimpatient":6665,"Ġrecognized":6666,"ĠElizabeth":6667,"Ġhesitated":6668,"ĠMiranda":6669,"Please":6670,"ault":6671,"Ġsim":6672,"Ġox":6673,"Ġhelm":6674,"Ġnaked":6675,"aries":6676,"lder":6677,"ider":6678,"Ġforlorn":6679,"ĠMal":6680,"ĠMamma":6681,"amb":6682,"ĠPlease":6683,"Ġgod":6684,"ussy":6685,"ĠChe":6686,"ĠCarmody":6687,"ĠCuthbert":6688,"ĠLillian":6689,"Ġbob":6690,"icket":6691,"Ġpew":6692,"Ġscent":6693,"Ġnewsp":6694,"othy":6695,"Ġsnatched":6696,"ĠThy":6697,"Ġobst":6698,"Ġconfessed":6699,"Ġpraying":6700,"Ġpapa":6701,"Alan":6702,"eese":6703,"Ġconcerned":6704,"ĠEdward":6705,"elessly":6706,"ĠMistress":6707,"ixteen":6708,"Ġsituation":6709,"Ġanchor":6710,"Ġacquaintance":6711,"Ġfootsteps":6712,"ET":6713,"Ye":6714,"away":6715,"cause":6716,"Ġsour":6717,"Ġlid":6718,"ĠMur":6719,"Ġshri":6720,"unice":6721,"ĠSidney":6722,"Ġlibr":6723,"uses":6724,"Ġworks":6725,"Ġbrood":6726,"ĠOp":6727,"Ġexha":6728,"ĠNight":6729,"Ġtrack":6730,"Ġtrace":6731,"Ġblows":6732,"ĠKnight":6733,"fortune":6734,"Ġcollect":6735,"Ġdirections":6736,"Ġtravelled":6737,"Ġpaths":6738,"Ġshouting":6739,"Ġgaze":6740,"Ġremarks":6741,"ĠOnly":6742,"ĠThanks":6743,"Ġreminded":6744,"Ġindignantly":6745,"Ġtrifle":6746,"ĠSchool":6747,"admus":6748,"girl":6749,"rude":6750,"Ġwilt":6751,"inqu":6752,"Ġhint":6753,"Ġhedge":6754,"Ġink":6755,"omon":6756,"Ġetern":6757,"iccu":6758,"Ġrat":6759,"ĠJes":6760,"ĠJul":6761,"sses":6762,"ĠHarry":6763,"neath":6764,"Ġevenings":6765,"Ġparting":6766,"ĠThief":6767,"Ġdeliver":6768,"Ġsupply":6769,"Ġcounted":6770,"Ġadding":6771,"Ġpaint":6772,"Ġgenius":6773,"Ġdepths":6774,"Ġcontinually":6775,"Ġtravelling":6776,"ĠXV":6777,"Ġwelc":6778,"Ġbridegroom":6779,"Ġpunish":6780,"Ġeighteen":6781,"Ġaunts":6782,"Ġremarkable":6783,"Ġsternly":6784,"Ġdisturb":6785,"Ġwithered":6786,"Ġforbidden":6787,"ĠDucks":6788,"codile":6789,"Ġumbrella":6790,"AM":6791,"Captain":6792,"Like":6793,"bu":6794,"eak":6795,"ien":6796,"mp":6797,"Ġske":6798,"ashes":6799,"Ġgames":6800,"legs":6801,"Ġbeet":6802,"Ġkicked":6803,"Ġmeadows":6804,"ĠWil":6805,"ĠWheel":6806,"Ġspots":6807,"Ġdevel":6808,"ĠJacob":6809,"ĠTilly":6810,"Ġintend":6811,"Ġoverhead":6812,"erson":6813,"Ġgracious":6814,"hens":6815,"Ġache":6816,"Ġslaves":6817,"Ġcompass":6818,"Ġguards":6819,"urple":6820,"Ġburnt":6821,"Ġduties":6822,"ĠDeath":6823,"addin":6824,"Ġpractice":6825,"Ġalarmed":6826,"Ġprincip":6827,"Ġmeekly":6828,"EAR":6829,"TIT":6830,"ho":6831,"iqu":6832,"riment":6833,"Ġwoo":6834,"Ġwives":6835,"itor":6836,"itched":6837,"Ġbeckon":6838,"Ġbefall":6839,"Ġnotes":6840,"ĠSept":6841,"ĠSancho":6842,"ĠCa":6843,"Ġbrushed":6844,"Ġvague":6845,"Ġplat":6846,"ĠHal":6847,"ĠHall":6848,"Ġperf":6849,"Ġadop":6850,"Ġgiants":6851,"eches":6852,"ibs":6853,"Ġladder":6854,"Ġdecent":6855,"Ġsquee":6856,"ĠRoad":6857,"Ġcompliment":6858,"Ġchestnut":6859,"Ġfilling":6860,"Ġgraceful":6861,"Ġspectacles":6862,"Ġmodest":6863,"Ġdesperately":6864,"THER":6865,"Ġpreferred":6866,"Ġaxe":6867,"Ġinhab":6868,"Ġunpleasant":6869,"back":6870,"Ġtend":6871,"Ġoil":6872,"Ġowe":6873,"Ġocean":6874,"Ġbone":6875,"Ġpul":6876,"Ġpitch":6877,"Ġpines":6878,"Ġseed":6879,"Ġbutt":6880,"usty":6881,"ĠPy":6882,"ĠPur":6883,"ĠPurple":6884,"Ġknelt":6885,"ĠWel":6886,"Ġchir":6887,"ĠCynthia":6888,"ĠTem":6889,"Ġvowed":6890,"Ġloft":6891,"Ġoffended":6892,"Ġenorm":6893,"Ġfinds":6894,"Ġkings":6895,"Ġdelay":6896,"Ġdecor":6897,"Ġfrighten":6898,"Ġtailor":6899,"Ġjoyfully":6900,"Ġbreathless":6901,"Ġthicket":6902,"Ġpeaceful":6903,"Ġhenhouse":6904,"Ġquarre":6905,"Ġsearched":6906,"Ġsoberly":6907,"Ġrags":6908,"Ġjacket":6909,"Ġcontrast":6910,"Ġventure":6911,"Ġevents":6912,"Ġenergy":6913,"Ġvacation":6914,"Granny":6915,"Ġstubborn":6916,"Ġshrewd":6917,"Ġfiery":6918,"Le":6919,"mates":6920,"txt":6921,"warf":6922,"Ġfired":6923,"Ġment":6924,"Ġpatter":6925,"Ġyawn":6926,"Ġwhir":6927,"acco":6928,"ify":6929,"child":6930,"Ġshine":6931,"Ġshivered":6932,"ĠCind":6933,"Ġbrass":6934,"Ġroaring":6935,"Ġoldest":6936,"Ġunlike":6937,"Ġscen":6938,"Ġunderneath":6939,"Ġowner":6940,"Ġperil":6941,"ĠYellow":6942,"ĠStr":6943,"Ġpretending":6944,"Ġwalks":6945,"Ġwonderfully":6946,"ĠDolly":6947,"Ġneedle":6948,"Ġcorners":6949,"Ġroads":6950,"Ġsecretly":6951,"Ġgrowled":6952,"Ġeagle":6953,"Ġharsh":6954,"ĠPoint":6955,"ĠPoppy":6956,"Ġcorrect":6957,"ikin":6958,"Ġstudied":6959,"Ġunusually":6960,"Ġtickled":6961,"Ġcushion":6962,"GHT":6963,"Ġlibrary":6964,"TITLE":6965,"ĠSeptember":6966,"giving":6967,"pina":6968,"rn":6969,"with":6970,"Ġhym":6971,"Ġlass":6972,"Ġlonel":6973,"Ġnet":6974,"anke":6975,"lex":6976,"Ġreck":6977,"Ġank":6978,"ĠAnt":6979,"Ġquiver":6980,"ĠHur":6981,"Ġlob":6982,"Ġlosing":6983,"iley":6984,"Ġhomely":6985,"Ġslain":6986,"Ġcomposed":6987,"ĠTheseus":6988,"Ġmeanwhile":6989,"Ġarmed":6990,"Ġdrift":6991,"Ġsteam":6992,"Ġaddressed":6993,"Ġgardens":6994,"ĠShall":6995,"serpina":6996,"ĠBabu":6997,"ĠPlace":6998,"Ġrustling":6999,"Ġsplit":7000,"Ġspectacle":7001,"Ġcontrary":7002,"Ġmantle":7003,"Ġconvinced":7004,"assador":7005,"bacco":7006,"ipt":7007,"lock":7008,"rain":7009,"heard":7010,"Ġmast":7011,"iration":7012,"Ġsheet":7013,"Ġshirt":7014,"Ġupward":7015,"ĠSmee":7016,"elp":7017,"ĠCadmus":7018,"Ġnovel":7019,"ĠDwarf":7020,"epend":7021,"Ġbliss":7022,"Ġamiable":7023,"Ġbacks":7024,"Ġchildhood":7025,"arks":7026,"Ġendure":7027,"Ġsentence":7028,"Ġinvol":7029,"Ġsecrets":7030,"Ġsuffic":7031,"Ġcharity":7032,"ĠAdam":7033,"Ġcloser":7034,"Ġgleam":7035,"Ġgreeted":7036,"Ġthirsty":7037,"Ġbodies":7038,"ĠBritish":7039,"clamation":7040,"ILL":7041,"Over":7042,"iber":7043,"lest":7044,"tin":7045,"Ġtumble":7046,"Ġsixteen":7047,"Ġbunch":7048,"omm":7049,"oops":7050,"Ġrival":7051,"ĠMon":7052,"aling":7053,"Ġshaken":7054,"Ġshocked":7055,"Ġmeals":7056,"ĠAny":7057,"Ġlions":7058,"ĠGhost":7059,"andy":7060,"abb":7061,"ĠLove":7062,"iger":7063,"Ġflood":7064,"Ġswinging":7065,"ĠKen":7066,"Ġstrain":7067,"Ġperceived":7068,"ĠChild":7069,"ailing":7070,"Ġsnuff":7071,"ĠThree":7072,"Ġwinked":7073,"Ġpains":7074,"Ġclimbing":7075,"Ġuneasy":7076,"Ġantlers":7077,"ĠCharlottetown":7078,"Ġsplash":7079,"Ġreflection":7080,"ENT":7081,"ĠLawless":7082,"Ġindignant":7083,"Ġrequest":7084,"Ġspinning":7085,"Ġgrieved":7086,"Ġwiped":7087,"ĠSolomon":7088,"Jane":7089,"LA":7090,"inn":7091,"Ġtobacco":7092,"Ġdagger":7093,"asse":7094,"Ġerect":7095,"ĠMoss":7096,"ĠSal":7097,"ĠBad":7098,"Ġgoat":7099,"Ġwhoever":7100,"Ġfears":7101,"ĠHam":7102,"ĠHare":7103,"ĠHello":7104,"Ġscare":7105,"osia":7106,"Ġbiggest":7107,"cloth":7108,"Ġsingular":7109,"Ġpathetic":7110,"Ġmisery":7111,"Ġfrolic":7112,"Ġsixty":7113,"Ġinterf":7114,"Ġpoints":7115,"Ġhideous":7116,"Ġfaintly":7117,"Ġtwinkled":7118,"sembled":7119,"Sp":7120,"Sara":7121,"Tw":7122,"just":7123,"Ġsung":7124,"Ġwakened":7125,"ature":7126,"Ġcam":7127,"ese":7128,"onies":7129,"Ġsauc":7130,"urgan":7131,"ĠSlightly":7132,"rol":7133,"arded":7134,"Ġframe":7135,"astic":7136,"Ġchairs":7137,"Ġdeaf":7138,"ĠDO":7139,"ĠGet":7140,"Ġmanly":7141,"Ġwillow":7142,"Ġovercome":7143,"Ġyourselves":7144,"ĠHun":7145,"hings":7146,"ĠNancy":7147,"Ġmotherly":7148,"ĠYork":7149,"Ġrestored":7150,"Ġelo":7151,"Ġremembr":7152,"Ġinstance":7153,"Ġaware":7154,"Ġsweetheart":7155,"lets":7156,"Ġmisfortune":7157,"Ġdining":7158,"Ġmerriment":7159,"Ġdiscont":7160,"Ġabsent":7161,"Ġkilling":7162,"ĠEllis":7163,"Ġsensation":7164,"Ġchoked":7165,"Ġfaults":7166,"Ġprotect":7167,"Ġsocial":7168,"ĠPhilippa":7169,"Ġcommun":7170,"Ġstruggled":7171,"Ġvictim":7172,"Ġhighest":7173,"Ġcabb":7174,"Ġcooked":7175,"Ġmeasure":7176,"Ġblaze":7177,"Ġcoffin":7178,"Ġunfortunate":7179,"Ġtremendous":7180,"Ġdisagreeable":7181,"Ġplatform":7182,"None":7183,"Pretty":7184,"RO":7185,"Wo":7186,"Wendy":7187,"loy":7188,"trees":7189,"Ġsits":7190,"inite":7191,"Ġmah":7192,"Ġtooth":7193,"Ġbef":7194,"omi":7195,"Ġonward":7196,"stand":7197,"acon":7198,"amin":7199,"Ġkneel":7200,"outs":7201,"ĠJer":7202,"ĠDaddy":7203,"ĠGert":7204,"arts":7205,"Ġintense":7206,"ĠHen":7207,"Ġload":7208,"Ġaged":7209,"Ġexclaim":7210,"ĠNOT":7211,"Ġbegging":7212,"Therefore":7213,"Ġcrad":7214,"Ġbehaved":7215,"Ġminded":7216,"ĠStar":7217,"ĠVict":7218,"Ġterms":7219,"Ġcrystal":7220,"Ġfaire":7221,"Ġmouths":7222,"Ġfreck":7223,"Ġstrangely":7224,"Ġearthly":7225,"Ġinvis":7226,"Ġvexed":7227,"Ġrecalled":7228,"Ġlament":7229,"Ġprepare":7230,"Somehow":7231,"Ġgallant":7232,"Ġmillion":7233,"Ġexamined":7234,"ĠPerseus":7235,"Ġneglected":7236,"Ġcultiv":7237,"Am":7238,"Paul":7239,"Rem":7240,"Whe":7241,"tr":7242,"Ġsy":7243,"Ġod":7244,"Ġhounds":7245,"Ġbou":7246,"ourage":7247,"Ġfer":7248,"Ġmates":7249,"Ġdived":7250,"Ġpages":7251,"Ġpacked":7252,"Ġgained":7253,"Ġrank":7254,"ĠST":7255,"ppose":7256,"Ġspan":7257,"Ġspared":7258,"Ġdem":7259,"ounding":7260,"ĠLind":7261,"Ġplants":7262,"opes":7263,"Ġtrous":7264,"Ġunm":7265,"Ġungr":7266,"Ġsmoot":7267,"Ġlasted":7268,"Ġowned":7269,"Ġrepres":7270,"Though":7271,"Ġsincere":7272,"Ġconfused":7273,"Ġshortly":7274,"Ġcreeping":7275,"Ġunderstanding":7276,"Ġmissing":7277,"Ġbitterness":7278,"Ġtongues":7279,"celyn":7280,"ĠDavis":7281,"Ġdeserved":7282,"Ġrejoicing":7283,"coloured":7284,"Ġsuspicious":7285,"Ġimprove":7286,"Ġestab":7287,"Ġlingered":7288,"ĠLucy":7289,"ĠGillis":7290,"Each":7291,"Ġwink":7292,"Ġcard":7293,"Ġpush":7294,"esc":7295,"owl":7296,"Ġroo":7297,"Ġrings":7298,"Ġwholesome":7299,"ĠGu":7300,"ĠTaffy":7301,"ĠLat":7302,"Ġovert":7303,"Ġplot":7304,"Ġroared":7305,"Ġexquis":7306,"Ġblade":7307,"Ġclover":7308,"Ġtwist":7309,"ĠEva":7310,"ootles":7311,"Ġsweetness":7312,"ĠAlicia":7313,"ondon":7314,"Ġfootpr":7315,"Ġrelatives":7316,"Ġhumour":7317,"Ġwarmth":7318,"Ġlifting":7319,"Ġpowerful":7320,"Ġleader":7321,"Ġsenses":7322,"ĠProserpina":7323,"Ġrobbers":7324,"ĠFlint":7325,"ĠAbraham":7326,"Ġventured":7327,"ĠOrchard":7328,"ĠEliza":7329,"ĠPresby":7330,"Ġexercise":7331,"Ġcivil":7332,"Ġruddy":7333,"Ġexquisite":7334,"Pher":7335,"RI":7336,"ca":7337,"lished":7338,"rows":7339,"says":7340,"uits":7341,"Ġting":7342,"Ġtones":7343,"Ġpistol":7344,"ĠIrene":7345,"utation":7346,"ima":7347,"imble":7348,"ste":7349,"Ġhaul":7350,"Ġrig":7351,"Ġshelf":7352,"ĠWAS":7353,"ĠCount":7354,"Ġalas":7355,"ĠDi":7356,"ĠFal":7357,"ĠTe":7358,"Ġquaint":7359,"Ġloyal":7360,"ĠOur":7361,"Ġamount":7362,"Ġcontain":7363,"Ġflames":7364,"Ġperch":7365,"Ġcheery":7366,"ubs":7367,"Ġfolly":7368,"Ġbrightly":7369,"ception":7370,"Ġmaids":7371,"Ġfatal":7372,"ugger":7373,"Ġproperty":7374,"Ġnodding":7375,"Nevertheless":7376,"Ġholiday":7377,"Ġdwelling":7378,"icksilver":7379,"Ġfortunate":7380,"ĠGovernor":7381,"Ġclerk":7382,"Ġintellig":7383,"Ġdazz":7384,"Ġceremony":7385,"Ġprosper":7386,"Ġwelcomed":7387,"ĠPresbyter":7388,"Dear":7389,"aomi":7390,"bler":7391,"uish":7392,"woman":7393,"Ġsar":7394,"Ġhats":7395,"Ġfiddle":7396,"isle":7397,"Ġlump":7398,"ĠIN":7399,"otuk":7400,"imus":7401,"verty":7402,"Ġrebell":7403,"roken":7404,"inded":7405,"Ġchor":7406,"ĠDuke":7407,"ĠLondon":7408,"Ġplucked":7409,"umai":7410,"Ġexceed":7411,"Ġpoverty":7412,"Ġpeb":7413,"Ġsatin":7414,"Ġcrou":7415,"Ġpleasantly":7416,"Ġcarelessly":7417,"Ġkindred":7418,"Ġdrifted":7419,"ivers":7420,"ĠViolet":7421,"ĠVirg":7422,"Ġdroll":7423,"ials":7424,"ĠFranz":7425,"Ġshadowy":7426,"Ġtort":7427,"Ġharmless":7428,"Ġwisely":7429,"Ġpenny":7430,"Ġscrub":7431,"Ġprovince":7432,"weet":7433,"Ġprettier":7434,"Ġrecollect":7435,"Ġdisplay":7436,"Ġglimmer":7437,"Ġsummoned":7438,"Ġliberty":7439,"otuko":7440,"Billy":7441,"Cec":7442,"TLE":7443,"but":7444,"bted":7445,"cade":7446,"chen":7447,"there":7448,"will":7449,"ators":7450,"Ġpadd":7451,"Ġpounds":7452,"Ġgorge":7453,"Ġhermit":7454,"Ġasyl":7455,"Ġstall":7456,"Ġstare":7457,"Ġripe":7458,"ĠMarm":7459,"Ġdole":7460,"rigg":7461,"ĠSanch":7462,"ĠAfter":7463,"ĠPretty":7464,"ĠCo":7465,"Ġjer":7466,"Ġintent":7467,"Ġconnect":7468,"aks":7469,"Ġclump":7470,"Ġmuff":7471,"Ġsmiles":7472,"Ġdreary":7473,"Ġhappiest":7474,"Ġcracked":7475,"Ġelsewhere":7476,"ference":7477,"Ġassist":7478,"Ġswords":7479,"whis":7480,"Ġmajor":7481,"Ġrecord":7482,"Ġapproach":7483,"Ġmurder":7484,"Being":7485,"Ġruined":7486,"Ġsparkled":7487,"ĠMacPher":7488,"Ġtwinkling":7489,"ĠFourth":7490,"Ġmodel":7491,"Ġwaistcoat":7492,"Ġlocks":7493,"Ġpirate":7494,"Ġcordial":7495,"ĠSpirits":7496,"Ġscolded":7497,"Ġwistful":7498,"Ġlimbs":7499,"Ġdistracted":7500,"Ġshudder":7501,"Ġrescue":7502,"ĠPlumfield":7503,"Ġviolets":7504,"ĠEurope":7505,"Ġluxur":7506,"Ġabsolutely":7507,"Half":7508,"not":7509,"tis":7510,"teen":7511,"van":7512,"Ġharp":7513,"Ġmite":7514,"Ġlun":7515,"Ġpump":7516,"estern":7517,"oma":7518,"othered":7519,"Ġwhim":7520,"ooper":7521,"Ġrais":7522,"Ġrasc":7523,"Ġwithd":7524,"Ġrear":7525,"Ġreven":7526,"ilar":7527,"ĠSands":7528,"ĠPack":7529,"Ġsullen":7530,"ĠWar":7531,"Ġchanges":7532,"Ġjelly":7533,"cker":7534,"Ġusing":7535,"Ġcopper":7536,"ishly":7537,"Ġfog":7538,"ĠEast":7539,"Ġdisgu":7540,"udge":7541,"covered":7542,"Ġsupport":7543,"Ġbedroom":7544,"Ġcuriously":7545,"Ġbrighter":7546,"Ġhumor":7547,"Ġsatisfy":7548,"Ġsubst":7549,"Ġharvest":7550,"Ġhence":7551,"ipper":7552,"Ġbaskets":7553,"Ġsails":7554,"Ġmovement":7555,"Ġhonestly":7556,"ĠBreeze":7557,"ĠIndia":7558,"Ġprovo":7559,"Ġtemptation":7560,"colm":7561,"Ġpopl":7562,"Ġsniffed":7563,"Ġfragrant":7564,"Felicity":7565,"Ġembroidered":7566,"Ġinvisible":7567,"gown":7568,"lass":7569,"minded":7570,"oard":7571,"uously":7572,"Ġtune":7573,"Ġtumbling":7574,"Ġwed":7575,"Ġbang":7576,"Ġheather":7577,"Ġlull":7578,"Ġgulf":7579,"sect":7580,"Ġsheer":7581,"Ġshows":7582,"ĠBur":7583,"ĠPry":7584,"ĠCiccu":7585,"gered":7586,"ĠTony":7587,"Ġroot":7588,"icken":7589,"ĠEve":7590,"Ġglowing":7591,"Ġwanting":7592,"Ġslid":7593,"Ġdrown":7594,"Ġbreathe":7595,"Ġhasty":7596,"Ġideas":7597,"Ġcollected":7598,"Ġpropos":7599,"Ġpreparing":7600,"Ġcourtiers":7601,"OULD":7602,"Charl":7603,"Ġmarks":7604,"cella":7605,"Ġpearl":7606,"Ġlawy":7607,"Ġwitness":7608,"Ġfeeding":7609,"Ġgreeting":7610,"ĠJudith":7611,"Ġbending":7612,"Ġsacrifice":7613,"Ġextremely":7614,"Ġtransp":7615,"Ġmixed":7616,"Ġexhausted":7617,"Ġloneliness":7618,"Mowgli":7619,"bows":7620,"iantly":7621,"jamin":7622,"ridge":7623,"Ġsoup":7624,"eron":7625,"Ġla":7626,"aser":7627,"ico":7628,"Ġstool":7629,"illing":7630,"ĠMU":7631,"ĠMat":7632,"ĠSer":7633,"ittens":7634,"Ġknot":7635,"ĠJess":7636,"ĠFancy":7637,"Ġbrows":7638,"venient":7639,"Ġblithe":7640,"Ġunkind":7641,"Ġpeering":7642,"Ġbegins":7643,"Ġglist":7644,"Ġproceed":7645,"Ġthroughout":7646,"Ġloveliest":7647,"ĠChurch":7648,"Ġtalent":7649,"Ġimpressed":7650,"Ġlightning":7651,"ĠGrimes":7652,"Ġrefuge":7653,"Ġbreathed":7654,"Ġwilder":7655,"Ġmouthful":7656,"itcher":7657,"Ġfury":7658,"Ġtravels":7659,"Ġbelongs":7660,"Ġsuccessful":7661,"ĠCecil":7662,"Ġweakness":7663,"Ġrobber":7664,"Ġadmiring":7665,"ĠSea":7666,"Ġfishes":7667,"Ġprecise":7668,"Ġconsciousness":7669,"OME":7670,"Ġdeparture":7671,"Ġvigor":7672,"Ġappreci":7673,"ĠBeauty":7674,"Matthew":7675,"ĠMurray":7676,"Ġshriek":7677,"ĠHenry":7678,"ĠMacPherson":7679,"Davy":7680,"IL":7681,"Jos":7682,"Most":7683,"XV":7684,"rate":7685,"wor":7686,"Ġbars":7687,"Ġlilies":7688,"Ġbears":7689,"Ġsew":7690,"Ġseam":7691,"Ġselect":7692,"ĠSil":7693,"Ġoutl":7694,"Ġdeeds":7695,"ĠFro":7696,"ĠTit":7697,"ĠLud":7698,"Ġplanted":7699,"Ġamusing":7700,"Ġgruff":7701,"Ġclam":7702,"Ġearned":7703,"Ġwax":7704,"oston":7705,"Ġsnap":7706,"Ġsleigh":7707,"ĠThistle":7708,"Ġindepend":7709,"Ġserpent":7710,"Ġairy":7711,"Ġawe":7712,"Ġladen":7713,"Ġadvanced":7714,"ĠSahibs":7715,"ĠAbel":7716,"Ġrules":7717,"Ġattract":7718,"Ġpleaded":7719,"ĠMalcolm":7720,"Ġinhabit":7721,"Ġenormous":7722,"Ġremembrance":7723,"Ġasylum":7724,"Daisy":7725,"Last":7726,"Other":7727,"flies":7728,"no":7729,"was":7730,"heus":7731,"Ġwaken":7732,"resp":7733,"Ġbon":7734,"Ġthine":7735,"Ġpony":7736,"onby":7737,"Ġinch":7738,"Ġwhipped":7739,"Ġhaunt":7740,"Ġrowed":7741,"Ġdod":7742,"Ġwheels":7743,"ĠBoston":7744,"ĠPal":7745,"indeer":7746,"ĠWay":7747,"ĠWild":7748,"ĠWorth":7749,"ĠCertainly":7750,"Ġnoses":7751,"andora":7752,"Ġbrace":7753,"Ġbrick":7754,"ĠLad":7755,"Ġquant":7756,"Ġquilt":7757,"ĠHarm":7758,"Ġclay":7759,"Ġsmith":7760,"Ġscandal":7761,"Ġhoarse":7762,"Una":7763,"ubby":7764,"Ġdelivered":7765,"Ġplays":7766,"ĠDoes":7767,"Ġsprung":7768,"Ġsweetly":7769,"Ġbrightened":7770,"Ġaction":7771,"Ġkissing":7772,"Ġquarters":7773,"Ġmiracle":7774,"Ġwhistled":7775,"Ġsympat":7776,"Ġimmort":7777,"Ġcotton":7778,"Ġmedit":7779,"Ġequally":7780,"Ġcautiously":7781,"ĠProvidence":7782,"ĠCharles":7783,"ĠCarey":7784,"Ġpreparations":7785,"Ġaccompanied":7786,"Ġmiserably":7787,"Whitefoot":7788,"Ġphilos":7789,"Ġcradle":7790,"AL":7791,"SE":7792,"Sir":7793,"UN":7794,"bin":7795,"Ġtit":7796,"Ġmas":7797,"Ġcask":7798,"Ġdil":7799,"Ġlat":7800,"Ġlag":7801,"Ġpowers":7802,"Ġformed":7803,"ĠMugger":7804,"ĠWater":7805,"ĠTime":7806,"Ġintention":7807,"Ġexec":7808,"Ġpricked":7809,"inkle":7810,"Ġgrind":7811,"Ġpeac":7812,"lip":7813,"ĠEarth":7814,"Ġswamp":7815,"leased":7816,"Ġslay":7817,"Ġcurrent":7818,"Ġspoon":7819,"ĠVan":7820,"Ġattended":7821,"Ġstaying":7822,"Ġfearing":7823,"Ġmischie":7824,"ĠShore":7825,"Ġsnowy":7826,"Ġinval":7827,"Ġactive":7828,"anna":7829,"Ġsorrowfully":7830,"Ġbenef":7831,"rooked":7832,"Ġrusty":7833,"Ġengage":7834,"Ġimportance":7835,"ĠRosetta":7836,"Ġspeedily":7837,"Ġsuspicion":7838,"Ġruled":7839,"Ġinformed":7840,"Ġofficer":7841,"Ġcopy":7842,"Ġsleeves":7843,"ĠAlexander":7844,"Ġparcel":7845,"ĠTemple":7846,"rnest":7847,"IX":7848,"bar":7849,"han":7850,"lad":7851,"mos":7852,"ober":7853,"pa":7854,"then":7855,"ua":7856,"uld":7857,"uable":7858,"vil":7859,"Ġtas":7860,"rey":7861,"rest":7862,"icious":7863,"Ġrice":7864,"ĠMore":7865,"Ġmemb":7866,"ĠAf":7867,"ĠPE":7868,"ĠPa":7869,"Ġdeceived":7870,"ĠJon":7871,"Ġorange":7872,"Ġtrad":7873,"Ġgrain":7874,"Ġbackward":7875,"ĠEag":7876,"Ġcrash":7877,"Ġcrushed":7878,"lph":7879,"Ġexped":7880,"eres":7881,"ĠStella":7882,"Ġrestless":7883,"onded":7884,"Ġtearing":7885,"Ġfourteen":7886,"Ġcolours":7887,"Ġcollection":7888,"ĠQuicksilver":7889,"Ġdiscovery":7890,"Ġexplan":7891,"Ġsmoking":7892,"Ġchariot":7893,"Ġthousands":7894,"ĠHoll":7895,"Ġportion":7896,"Ġoccasionally":7897,"Ġdeny":7898,"Ġextraord":7899,"Ġpermission":7900,"Ġstretch":7901,"Ġcomrades":7902,"Ġdisgust":7903,"Ġinterview":7904,"Ġportrait":7905,"Ġadorned":7906,"Ġpotatoes":7907,"ĠLeonard":7908,"Ġgratefully":7909,"Janet":7910,"VE":7911,"down":7912,"ium":7913,"long":7914,"maker":7915,"nuts":7916,"ral":7917,"some":7918,"ream":7919,"Ġoath":7920,"Ġhoof":7921,"Ġmart":7922,"Ġbeaming":7923,"Ġreindeer":7924,"ĠMed":7925,"Ġnoted":7926,"Ġdoings":7927,"ittered":7928,"ĠApp":7929,"Ġchanging":7930,"ĠCraw":7931,"Ġaboard":7932,"Ġmansion":7933,"ĠLo":7934,"Ġtroop":7935,"Ġfluttered":7936,"Ġfoam":7937,"Ġoffering":7938,"Ġhomeward":7939,"Ġbetray":7940,"udged":7941,"ĠStan":7942,"ĠStacy":7943,"Three":7944,"rett":7945,"Ġsilken":7946,"Ġinstruct":7947,"Ġdraught":7948,"Ġairs":7949,"ĠAlas":7950,"Ġcounting":7951,"Ġemotion":7952,"Ġmarrying":7953,"Ġveget":7954,"Ġrecover":7955,"lored":7956,"Ġmadam":7957,"ĠArchie":7958,"Ġcompliments":7959,"Ġjudgment":7960,"Ġslightly":7961,"Ġdignified":7962,"Ġtransform":7963,"Ġconstantly":7964,"Ġspears":7965,"Ġcritic":7966,"Ġgradually":7967,"Ġlecture":7968,"ĠVictor":7969,"Remember":7970,"Ġtrousers":7971,"Danny":7972,"bish":7973,"nikin":7974,"pad":7975,"phere":7976,"top":7977,"worth":7978,"Ġdiss":7979,"Ġlung":7980,"Ġnast":7981,"Ġwhit":7982,"Ġstor":7983,"Ġatmos":7984,"Ġliking":7985,"Ġplates":7986,"Ġclaw":7987,"Ġcove":7988,"Ġwrought":7989,"Ġcheap":7990,"ERE":7991,"ĠAladdin":7992,"Ġbuggy":7993,"umbers":7994,"Ġdoubtless":7995,"Ġrecall":7996,"ĠPhill":7997,"ĠFairies":7998,"Ġdismiss":7999,"Ġelephant":8000,"Ġphot":8001,"Ġboarding":8002,"Ġmember":8003,"flowers":8004,"Ġpraised":8005,"Ġregarded":8006,"ĠGrandmother":8007,"Ġconcealed":8008,"Tommy":8009,"Jims":8010,"ammered":8011,"Ġbridle":8012,"Ġribbons":8013,"Ġpeasant":8014,"ĠCameron":8015,"ĠHawk":8016,"Ġivory":8017,"Ġatmosphere":8018,"Nat":8019,"Paddy":8020,"after":8021,"ige":8022,"mate":8023,"post":8024,"rous":8025,"whe":8026,"Ġtroll":8027,"Ġay":8028,"Ġaver":8029,"Ġmail":8030,"Ġdi":8031,"oned":8032,"Ġbeech":8033,"Ġec":8034,"Ġsoil":8035,"ali":8036,"chair":8037,"ĠBat":8038,"ĠBow":8039,"ĠPandora":8040,"ĠWoman":8041,"Ġlevel":8042,"Ġvivid":8043,"ummy":8044,"Ġblushed":8045,"Ġgrant":8046,"Ġflush":8047,"Ġstrict":8048,"Thou":8049,"Ġskirt":8050,"Ġempt":8051,"Ġhumili":8052,"grown":8053,"Ġaffl":8054,"Ġtraged":8055,"Ġirres":8056,"engers":8057,"ĠSmith":8058,"Ġinsult":8059,"Ġvisitor":8060,"ĠClare":8061,"Ġwonders":8062,"Ġsalmon":8063,"ĠEmperor":8064,"Ġglasses":8065,"Ġveranda":8066,"Ġoccasions":8067,"Ġcrop":8068,"Ġprotest":8069,"ĠMinnikin":8070,"pperty":8071,"Ġprofession":8072,"ĠJamesina":8073,"Ġtrotting":8074,"Ġstruggling":8075,"Ġpursued":8076,"Ġbridal":8077,"ĠParis":8078,"Ġtidy":8079,"Ġconquer":8080,"Ġgovernor":8081,"Ġdestroy":8082,"Ġambassador":8083,"Ġpronounced":8084,"Ġapparently":8085,"inquired":8086,"Ġchorus":8087,"Ġmembers":8088,"ĠCrawford":8089,"Em":8090,"IGHT":8091,"Ġing":8092,"Ġtipt":8093,"inia":8094,"Ġoars":8095,"Ġbump":8096,"ouf":8097,"Ġgird":8098,"adays":8099,"oms":8100,"ĠIl":8101,"lying":8102,"Ġelect":8103,"Ġherd":8104,"Ġsteed":8105,"ĠSister":8106,"ĠSweet":8107,"ĠBoo":8108,"ĠBarb":8109,"ĠPons":8110,"Ġknocking":8111,"Ġalt":8112,"ĠTootles":8113,"ĠLurgan":8114,"ĠRand":8115,"ĠRuth":8116,"Ġlod":8117,"ĠON":8118,"Ġgrows":8119,"Ġgrumbled":8120,"Ġgloss":8121,"ĠKaa":8122,"ĠMaria":8123,"Ġhob":8124,"ĠStuffy":8125,"Ġspeck":8126,"Ġdram":8127,"Ġcontents":8128,"Ġattack":8129,"ĠBlue":8130,"Ġbreathing":8131,"Ġmistakes":8132,"Ġweariness":8133,"Ġdrawer":8134,"Ġinfinite":8135,"Ġirr":8136,"Ġapolog":8137,"Ġstrode":8138,"Ġexperiment":8139,"Ġworrying":8140,"Ġmelted":8141,"Prince":8142,"Ġleaping":8143,"Ġthreatened":8144,"Ġseventy":8145,"Ġrapture":8146,"Ġpermitted":8147,"Ġstretching":8148,"Ġaccomplished":8149,"Ġvenerable":8150,"Ġavoid":8151,"Ġannoyed":8152,"Ġroused":8153,"Ġscholar":8154,"Ġorphan":8155,"Ġmarvell":8156,"Ġbeetles":8157,"loyd":8158,"ĠPonsonby":8159,"Having":8160,"Ro":8161,"Tr":8162,"cut":8163,"wind":8164,"ita":8165,"Ġtoler":8166,"enched":8167,"Ġpian":8168,"esy":8169,"Ġgable":8170,"legged":8171,"acity":8172,"ural":8173,"Ġshove":8174,"alla":8175,"ĠBh":8176,"ĠBill":8177,"ĠAng":8178,"umin":8179,"ĠHE":8180,"ĠHath":8181,"Ġperi":8182,"Ġperched":8183,"Ġbusily":8184,"Ġskirts":8185,"Ġdarkly":8186,"Ġawakened":8187,"Ġdreamy":8188,"Ġattent":8189,"umbs":8190,"Ġpatted":8191,"Ġrefres":8192,"Ġstrongly":8193,"ĠFriday":8194,"ĠFraser":8195,"Ġpainful":8196,"Ġwarmly":8197,"Ġcrossing":8198,"Ġlamb":8199,"ĠClara":8200,"Ġrubbing":8201,"ĠAnn":8202,"licted":8203,"ĠBelle":8204,"Ġchuckle":8205,"Ġcouncil":8206,"Ġblooming":8207,"ĠLawrence":8208,"ĠMadame":8209,"Ġimproved":8210,"Ġincreased":8211,"ĠOctober":8212,"Ġavenue":8213,"waite":8214,"Ġoriginal":8215,"Ġbuttons":8216,"ĠPyg":8217,"ĠLatin":8218,"whispered":8219,"ĠHarmon":8220,"Ġmischievous":8221,"Ġextraordinary":8222,"Ġlungs":8223,"ciously":8224,"ev":8225,"lit":8226,"mir":8227,"rs":8228,"rowed":8229,"Ġsway":8230,"Ġwiz":8231,"Ġcents":8232,"inged":8233,"iselle":8234,"Ġdun":8235,"Ġdangers":8236,"Ġlent":8237,"Ġnook":8238,"org":8239,"Ġparr":8240,"Ġpowder":8241,"Ġpitcher":8242,"Ġrh":8243,"Ġrats":8244,"Ġsaving":8245,"Ġshru":8246,"raft":8247,"ĠCrooked":8248,"Ġju":8249,"ĠFul":8250,"Ġworm":8251,"Ġleis":8252,"ĠLloyd":8253,"Ġvines":8254,"igue":8255,"ĠNE":8256,"Ġgranted":8257,"Ġflown":8258,"Ġarcher":8259,"ĠEp":8260,"Ġperse":8261,"Ġperce":8262,"Ġappointed":8263,"Ġparties":8264,"Ġslope":8265,"Ġhighly":8266,"mballa":8267,"Ġyouthful":8268,"Ġdisappro":8269,"ĠAhmed":8270,"Ġsigned":8271,"Ġplanning":8272,"Ġhappening":8273,"ĠAnna":8274,"Ġvanity":8275,"Ġaccounts":8276,"Ġuneas":8277,"Ġturtle":8278,"Ġcrocodile":8279,"Ġsolid":8280,"Ġsolitude":8281,"ĠGerda":8282,"Ġtriumphantly":8283,"Ġdivided":8284,"ĠFreda":8285,"enneth":8286,"Ġprecip":8287,"Ġcoffee":8288,"Ġattracted":8289,"Ġcushions":8290,"Ġtraveller":8291,"Ġhumbly":8292,"Ġwilderness":8293,"bag":8294,"green":8295,"ras":8296,"Ġcig":8297,"Ġcaps":8298,"Ġcudd":8299,"Ġger":8300,"Ġinsect":8301,"oti":8302,"Ġstammered":8303,"Ġreigned":8304,"ĠMR":8305,"Ġshapes":8306,"ĠSomet":8307,"ĠBar":8308,"ĠTwo":8309,"Ġbond":8310,"Ġtimidly":8311,"Ġloaded":8312,"Ġprint":8313,"Ġunable":8314,"Ġcontained":8315,"tyard":8316,"lings":8317,"Ġcourtyard":8318,"Ġcheese":8319,"footed":8320,"Ġpalm":8321,"Ġschoolmaster":8322,"Ġsquir":8323,"itches":8324,"Ġdoubtful":8325,"Without":8326,"Ġsignal":8327,"Ġresolutely":8328,"Ġfarmhouse":8329,"ĠUmballa":8330,"Ġfashionable":8331,"Ġverse":8332,"cript":8333,"Ġraise":8334,"colored":8335,"Ġscornfully":8336,"ovic":8337,"Ġbuffalo":8338,"Ġsketch":8339,"stein":8340,"Jill":8341,"door":8342,"po":8343,"rified":8344,"tat":8345,"vation":8346,"wr":8347,"Ġack":8348,"Ġwire":8349,"real":8350,"Ġbase":8351,"Ġmethod":8352,"Ġdomest":8353,"Ġpu":8354,"Ġgigg":8355,"Ġbeer":8356,"Ġyell":8357,"vember":8358,"Ġrack":8359,"Ġrevel":8360,"ĠMil":8361,"Ġupright":8362,"Ġsuits":8363,"Ġoutward":8364,"Ġspun":8365,"thur":8366,"ĠJam":8367,"Ġbrains":8368,"Ġtrun":8369,"icky":8370,"Ġnowadays":8371,"Ġpress":8372,"Ġpreach":8373,"ĠEunice":8374,"Ġprogress":8375,"Ġremains":8376,"ĠMarcella":8377,"Ġappl":8378,"Ġchela":8379,"ode":8380,"Ġreds":8381,"Ġresumed":8382,"Ġinvite":8383,"Ġlowered":8384,"Ġsplendidly":8385,"Ġcalf":8386,"Ġescort":8387,"annis":8388,"ĠClark":8389,"Ġsailors":8390,"ĠPlenty":8391,"Ġturb":8392,"Ġstirring":8393,"Ġsobbing":8394,"Ġexamine":8395,"ĠIrish":8396,"Ġdescended":8397,"moiselle":8398,"Ġpersuaded":8399,"Ġsentimental":8400,"Ġnerves":8401,"ĠLindsay":8402,"Ġstormy":8403,"Ab":8404,"Away":8405,"Dr":8406,"moon":8407,"iner":8408,"reet":8409,"Ġoper":8410,"Ġbachel":8411,"lls":8412,"Ġdirt":8413,"Ġgap":8414,"ĠIvan":8415,"Ġhaw":8416,"Ġrasp":8417,"Ġrever":8418,"Ġsewed":8419,"ĠCatherine":8420,"ĠListen":8421,"Ġoverheard":8422,"ĠHush":8423,"ĠHope":8424,"Ġrog":8425,"Ġpoem":8426,"ĠNelly":8427,"Ġgrasp":8428,"avia":8429,"Ġwaked":8430,"ĠHead":8431,"Ġimplored":8432,"Ġelbow":8433,"Ġsoftened":8434,"ĠJackal":8435,"egumai":8436,"Ġinsist":8437,"Ġdiscip":8438,"Ġtenderness":8439,"Ġapprove":8440,"Ġappropri":8441,"Ġringing":8442,"uzzy":8443,"ĠArthur":8444,"Ġsensitive":8445,"Ġcondem":8446,"Ġrapid":8447,"Ġpausing":8448,"ĠJoscelyn":8449,"Ġneatly":8450,"Ġviolent":8451,"Ġborrow":8452,"Ġsulky":8453,"Ġgrimly":8454,"ĠMadam":8455,"Ġfrankly":8456,"Ġgreedy":8457,"Ġreproachfully":8458,"Ġpupils":8459,"Ġignorant":8460,"Ġunseen":8461,"ĠChester":8462,"Ġirresist":8463,"Ġacknow":8464,"Beth":8465,"Leslie":8466,"MY":8467,"Since":8468,"holes":8469,"lace":8470,"Ġward":8471,"Ġbrig":8472,"itively":8473,"Ġmot":8474,"Ġduke":8475,"Ġrows":8476,"ĠMess":8477,"Ġshift":8478,"Ġshalt":8479,"ores":8480,"ilful":8481,"ĠCap":8482,"ĠCove":8483,"Ġjaws":8484,"ĠTree":8485,"Ġintim":8486,"Ġboot":8487,"Ġrod":8488,"Ġblush":8489,"Ġthrong":8490,"ĠJoanna":8491,"Ġcrutch":8492,"Ġhopping":8493,"ordan":8494,"Ġhardest":8495,"Ġfathers":8496,"Ġsnatch":8497,"Ġspeeches":8498,"ĠBright":8499,"ĠNovember":8500,"astern":8501,"Ġinstrum":8502,"Ġconsult":8503,"Ġdreamily":8504,"eyond":8505,"inson":8506,"ucking":8507,"Ġconfid":8508,"Ġsends":8509,"Ġrespects":8510,"Ġtorch":8511,"Ġconsidering":8512,"ITTLE":8513,"Ġviolently":8514,"Ġvaluable":8515,"Ġslightest":8516,"Ġdusky":8517,"Ġheathen":8518,"Ġchickens":8519,"Ġperformance":8520,"ĠLonglegs":8521,"ixture":8522,"Ġslippery":8523,"Ġdescribed":8524,"Ġmotionless":8525,"Ġvirtue":8526,"Ġcongreg":8527,"Ġrattled":8528,"Scrooge":8529,"ĠThyra":8530,"Ġscenes":8531,"ĠGertrude":8532,"Cecily":8533,"Ġgorgeous":8534,"DY":8535,"ef":8536,"hallow":8537,"Ġowing":8538,"Ġbash":8539,"Ġbald":8540,"Ġtossing":8541,"Ġlined":8542,"Ġinches":8543,"iddy":8544,"lysses":8545,"iries":8546,"Ġstake":8547,"Ġrisen":8548,"Ġreins":8549,"ĠBry":8550,"ustri":8551,"Ġknit":8552,"Ġjar":8553,"Ġjam":8554,"ĠLake":8555,"ĠHi":8556,"Ġlofty":8557,"Ġpoked":8558,"Ġcrooked":8559,"Ġcarved":8560,"Ġsweeter":8561,"Ġfires":8562,"Ġanguish":8563,"Ġdeepest":8564,"Ġwhisked":8565,"ĠFrance":8566,"Ġadvised":8567,"Ġsignific":8568,"ogue":8569,"ĠLyn":8570,"Ġhurriedly":8571,"verent":8572,"Ġbutterfly":8573,"Ġshooting":8574,"Ġunconsciously":8575,"Ġrecollection":8576,"break":8577,"Ġpredic":8578,"smith":8579,"Ġdistinguished":8580,"Ġfascinating":8581,"Ġcontrived":8582,"Ġtragic":8583,"ĠRemora":8584,"Ġlobster":8585,"ĠSalome":8586,"Ġlawyer":8587,"Ġinhabitants":8588,"ĠPETER":8589,"Ġtragedy":8590,"Ġpiano":8591,"CH":8592,"eve":8593,"ique":8594,"lau":8595,"pers":8596,"piece":8597,"Ġtar":8598,"Ġtables":8599,"Ġwrigg":8600,"Ġhanged":8601,"Ġbills":8602,"atory":8603,"Ġtoys":8604,"sell":8605,"Ġramp":8606,"Ġraced":8607,"urry":8608,"Ġseeds":8609,"ĠBest":8610,"ĠBird":8611,"ĠPage":8612,"Ġfrowned":8613,"quently":8614,"Ġdeg":8615,"ieve":8616,"ĠTegumai":8617,"ĠLav":8618,"ourse":8619,"ĠHas":8620,"ĠNaomi":8621,"Ġblast":8622,"Ġclinging":8623,"Ġheaded":8624,"angs":8625,"Ġswore":8626,"ĠKipp":8627,"ĠKotuko":8628,"Ġdisob":8629,"Ġdiscer":8630,"iper":8631,"Ġnewly":8632,"Ġtease":8633,"Ġcurse":8634,"Ġspoilt":8635,"Ġsweeping":8636,"Ġamongst":8637,"Ġobsc":8638,"Ġspray":8639,"Ġconsol":8640,"ERY":8641,"Ġfrightful":8642,"Ġrefresh":8643,"Ġmerit":8644,"Ġacted":8645,"Ġinfant":8646,"ĠBeast":8647,"Ġvisiting":8648,"Ġcraft":8649,"Ġpencil":8650,"Ġincred":8651,"ĠMattie":8652,"Ġshroud":8653,"ĠUp":8654,"Ġimpatience":8655,"Ġattendants":8656,"Ġsuperior":8657,"Ġscolding":8658,"Shall":8659,"ĠSwallow":8660,"Ġsuggestion":8661,"Ġpuffed":8662,"Ġriches":8663,"Ġambition":8664,"Ġpipes":8665,"ĠMaximus":8666,"Ġcelebrated":8667,"Ġperfume":8668,"Ġpebbles":8669,"ĠLavinia":8670,"hind":8671,"leness":8672,"more":8673,"uel":8674,"wen":8675,"Ġtun":8676,"Ġwaking":8677,"Ġwounds":8678,"Ġfidd":8679,"Ġgull":8680,"Ġbeau":8681,"idays":8682,"aciously":8683,"kered":8684,"ĠMY":8685,"Ġlip":8686,"ulously":8687,"Ġspy":8688,"ĠJe":8689,"ĠDID":8690,"ĠGunn":8691,"gend":8692,"andel":8693,"Ġwillingly":8694,"Ġbru":8695,"ĠLow":8696,"Ġboil":8697,"Ġtheirs":8698,"ĠHalf":8699,"Ġros":8700,"ĠOLD":8701,"ĠNibs":8702,"Its":8703,"Ġhandy":8704,"aging":8705,"Ġard":8706,"Ġglances":8707,"ounted":8708,"Ġcrisp":8709,"Ġbeings":8710,"meeting":8711,"ĠThose":8712,"Ġdeliber":8713,"odge":8714,"Ġentering":8715,"Ġpromising":8716,"Ġhopeful":8717,"uces":8718,"Ġpersisted":8719,"Ġlanding":8720,"Ġcrest":8721,"Ġbarking":8722,"Ġdripping":8723,"Ġsplendor":8724,"Ġafflicted":8725,"Ġuncertain":8726,"ugging":8727,"Ġstarve":8728,"Ġconsiderable":8729,"Ġgayly":8730,"Ġelders":8731,"Ġobserve":8732,"Ġcorp":8733,"Ġmorsel":8734,"ĠSquire":8735,"Ġporridge":8736,"Ġhabits":8737,"Ġpassionately":8738,"prise":8739,"Ġmourning":8740,"Ġresponded":8741,"Ġghosts":8742,"Ġancest":8743,"Ġdescribe":8744,"Ġseventeen":8745,"Ġenerget":8746,"Ġwrest":8747,"ĠGovernment":8748,"Ġterrified":8749,"Ġshrieked":8750,"hibit":8751,"izzie":8752,"Ġimpulse":8753,"ĠCaroline":8754,"Ġexceedingly":8755,"ĠEagle":8756,"Ġaltar":8757,"Ġmarvellous":8758,"ĠHathi":8759,"ĠFulke":8760,"Ġdomestic":8761,"AB":8762,"Eric":8763,"Me":8764,"burn":8765,"gage":8766,"iably":8767,"uing":8768,"uine":8769,"zel":8770,"Ġ3":8771,"Ġty":8772,"helia":8773,"Ġfid":8774,"Ġfri":8775,"Ġtoil":8776,"Ġcough":8777,"Ġcured":8778,"Ġge":8779,"Ġgale":8780,"idents":8781,"Ġstooping":8782,"Ġredd":8783,"Ġrecess":8784,"urg":8785,"Ġdoct":8786,"ĠSi":8787,"ĠBE":8788,"rob":8789,"elw":8790,"essa":8791,"ulated":8792,"rab":8793,"Ġgob":8794,"ĠCeres":8795,"Ġafar":8796,"Ġpoking":8797,"Ġcob":8798,"Ġhowled":8799,"Ġswell":8800,"olph":8801,"ĠCharming":8802,"Ġmostly":8803,"Ġslide":8804,"Ġcompared":8805,"ĠThese":8806,"Ġdarkened":8807,"Ġreser":8808,"Ġresigned":8809,"Ġsurprising":8810,"Ġrelations":8811,"Ġgardener":8812,"ĠSpring":8813,"Ġjoyful":8814,"Ġmerc":8815,"Ġadvise":8816,"Ġtraps":8817,"Ġrivers":8818,"Ġrespectfully":8819,"Ġcharmed":8820,"arrass":8821,"Ġcups":8822,"Ġgrinning":8823,"Ġdisposition":8824,"Ġcounter":8825,"Ġtriumphant":8826,"Ġpitied":8827,"Ġconceal":8828,"Ġpopular":8829,"Ġrequired":8830,"Ġlabor":8831,"Ġkeenly":8832,"Ġrevealed":8833,"ennel":8834,"unno":8835,"Ġrevol":8836,"Ġunlucky":8837,"Ġthrilling":8838,"Ġstamped":8839,"Ġpouring":8840,"ĠOphelia":8841,"Ġpulpit":8842,"Ġhymn":8843,"Ġsmoothed":8844,"ĠJessie":8845,"During":8846,"UM":8847,"grandfather":8848,"hip":8849,"Ġz":8850,"Ġtheat":8851,"Ġfame":8852,"eding":8853,"Ġmound":8854,"Ġmixture":8855,"Ġlil":8856,"Ġlust":8857,"orter":8858,"Ġpark":8859,"Ġinher":8860,"Ġbeads":8861,"imet":8862,"Ġep":8863,"Ġrug":8864,"Ġsauce":8865,"ĠMost":8866,"urity":8867,"ĠPers":8868,"ĠPark":8869,"ĠJean":8870,"ĠHER":8871,"Ġloaf":8872,"Ġpressing":8873,"Ġpeered":8874,"Ġmocking":8875,"ĠEven":8876,"angle":8877,"Ġrights":8878,"Ġloveliness":8879,"Ġreputation":8880,"Ġearlier":8881,"Ġkindled":8882,"ĠStop":8883,"Through":8884,"Ġcheering":8885,"Ġsunbe":8886,"Ġskim":8887,"Ġdragging":8888,"Ġdeadly":8889,"Ġangels":8890,"Ġbrightness":8891,"Ġbury":8892,"ĠFritz":8893,"ruly":8894,"Ġslipping":8895,"Ġdoubts":8896,"Ġpolice":8897,"Ġprophe":8898,"Ġboxes":8899,"Ġsandy":8900,"ĠUlysses":8901,"pecker":8902,"Ġbags":8903,"blue":8904,"Ġmuddy":8905,"Ġuncommon":8906,"Ġpassionate":8907,"Ġfetched":8908,"Ġembarrass":8909,"Ġaffectionate":8910,"Anyway":8911,"omestead":8912,"Ġbulr":8913,"Ġsurveyed":8914,"Ġignorance":8915,"Ġnewspaper":8916,"Ġmental":8917,"ĠPresbyterian":8918,"Ġsympathetic":8919,"ĠShoreby":8920,"Ġperiod":8921,"About":8922,"Demi":8923,"Get":8924,"Nay":8925,"gie":8926,"olly":8927,"pie":8928,"rim":8929,"wick":8930,"Ġhomestead":8931,"Ġbind":8932,"Ġfant":8933,"Ġfoul":8934,"Ġda":8935,"Ġyarn":8936,"Ġassembled":8937,"Ġrays":8938,"kerel":8939,"ĠMe":8940,"ĠMel":8941,"urance":8942,"Ġserene":8943,"chan":8944,"thony":8945,"Ġbram":8946,"ĠLives":8947,"ĠRuss":8948,"opsy":8949,"Ġrocking":8950,"Ġages":8951,"ĠNell":8952,"Ġblock":8953,"Ġdaytime":8954,"Ġcann":8955,"ilda":8956,"Ġcocked":8957,"Ġpreced":8958,"orns":8959,"ĠErnest":8960,"Ġglancing":8961,"dding":8962,"Ġtalks":8963,"Ġdesolate":8964,"Ġrestore":8965,"ups":8966,"ĠVERY":8967,"Ġfalls":8968,"Ġwhisk":8969,"Ġcolors":8970,"Ġpersonal":8971,"Ġgrasses":8972,"Ġimagin":8973,"Ġassumed":8974,"Ġvisitors":8975,"Ġapproving":8976,"Ġrainbow":8977,"ĠScott":8978,"Ġpenit":8979,"Ġresolution":8980,"Ġcomplained":8981,"ĠPeace":8982,"Ġgalloped":8983,"Ġconcern":8984,"Ġinquire":8985,"Ġspells":8986,"Ġrustle":8987,"Ġstudent":8988,"Ġconvul":8989,"Ġencourage":8990,"Ġdifficulties":8991,"Ġtremble":8992,"Ġapartment":8993,"Ġscrape":8994,"ortunately":8995,"Ġechoes":8996,"Ġhospital":8997,"Ġofficers":8998,"Ġhomesick":8999,"Ġgnaw":9000,"Ġstatue":9001,"ĠBennet":9002,"Ġperplex":9003,"ĠSimon":9004,"Ġornam":9005,"Ġowl":9006,"Ġlinen":9007,"Ġproposal":9008,"ĠMUST":9009,"ĠJonas":9010,"Ġnasty":9011,"ĠRandall":9012,"AK":9013,"aly":9014,"four":9015,"fold":9016,"mered":9017,"Ġfist":9018,"Ġfits":9019,"Ġfaced":9020,"Ġfainted":9021,"Ġcas":9022,"Ġheir":9023,"Ġdaint":9024,"imer":9025,"Ġeb":9026,"icated":9027,"Ġascend":9028,"Ġstab":9029,"Ġsaints":9030,"ĠMol":9031,"Ġseats":9032,"elope":9033,"Ġgods":9034,"ĠCro":9035,"ĠGreek":9036,"ĠFear":9037,"ĠFuzzy":9038,"ieves":9039,"Ġlegend":9040,"ĠLaur":9041,"ĠLizzie":9042,"Ġoverl":9043,"Ġoverfl":9044,"ĠHA":9045,"ĠHands":9046,"Ġdownward":9047,"never":9048,"Ġprow":9049,"ĠNonsense":9050,"Ġtroops":9051,"Ġblushing":9052,"Ġcomical":9053,"Ġgoods":9054,"Ġflowed":9055,"Ġfoe":9056,"ĠElves":9057,"Ġglowed":9058,"ĠKenneth":9059,"osure":9060,"Ġbehav":9061,"Ġsnakes":9062,"Ġhopeless":9063,"actory":9064,"ĠRedtail":9065,"Ġskipped":9066,"Ġdrows":9067,"Ġspruces":9068,"obden":9069,"Ġfinal":9070,"ĠShaw":9071,"Ġgenuine":9072,"Ġtrib":9073,"ĠToady":9074,"Everyone":9075,"Ġpropose":9076,"ĠBaba":9077,"Behind":9078,"Ġcourtesy":9079,"Ġceiling":9080,"Ġconcerning":9081,"Ġpinned":9082,"uction":9083,"Ġknights":9084,"Ġoccasional":9085,"Ġtightly":9086,"Ġconviction":9087,"Ġpositively":9088,"Prickly":9089,"Ġpursuit":9090,"Ġcoolly":9091,"Ġlargest":9092,"Ġwreck":9093,"Ġcongrat":9094,"Ġyielded":9095,"Ġawaited":9096,"Ġcomrade":9097,"Ġfisherman":9098,"Ġoccupied":9099,"Ġintroduced":9100,"ĠBennett":9101,"Ġfulfilled":9102,"Moreover":9103,"Ġindifferent":9104,"Ġweapons":9105,"Ġhelmet":9106,"Ġwhirled":9107,"Ġinvolunt":9108,"Ġexclaiming":9109,"Ġrascal":9110,"ĠHolland":9111,"Ġcongregation":9112,"imetheus":9113,"ĠLivesey":9114,"Car":9115,"Fortunately":9116,"bury":9117,"cap":9118,"handed":9119,"iences":9120,"kily":9121,"making":9122,"rison":9123,"vale":9124,"Ġtut":9125,"Ġtom":9126,"Ġcards":9127,"Ġheaped":9128,"Ġlain":9129,"Ġginger":9130,"Ġinward":9131,"ĠIda":9132,"utions":9133,"ifting":9134,"Ġkennel":9135,"ustace":9136,"ĠPeg":9137,"ĠWard":9138,"Ġchains":9139,"Ġchasing":9140,"ĠCast":9141,"ĠFe":9142,"ĠFar":9143,"Ġworsh":9144,"Ġworship":9145,"Ġbron":9146,"ĠHOW":9147,"Ġloc":9148,"Ġprick":9149,"Ġclapping":9150,"ager":9151,"fulness":9152,"Ġcoal":9153,"ĠEben":9154,"armed":9155,"Ġstrings":9156,"ffman":9157,"Ġrightly":9158,"nyard":9159,"Ġpleasures":9160,"xton":9161,"Ġdesign":9162,"Ġchecked":9163,"Ġcontrib":9164,"ĠNobody":9165,"ĠButter":9166,"Ġjokes":9167,"Ġfearfully":9168,"Ġpatron":9169,"Ġconfident":9170,"Ġquicker":9171,"eech":9172,"Ġfrequent":9173,"Ġenjoyment":9174,"Ġtemple":9175,"Ġinvest":9176,"jected":9177,"Ġwarri":9178,"Ġhotel":9179,"ĠCarroll":9180,"Ġsuitable":9181,"Ġshrank":9182,"Ġaffected":9183,"Ġtraining":9184,"ĠHoffman":9185,"Ġcorresp":9186,"nae":9187,"Ġfaltered":9188,"Ġhammer":9189,"Ġreverence":9190,"Ġdigging":9191,"Ġinformation":9192,"Ġinspiration":9193,"Ġdistinctly":9194,"Ġechoed":9195,"Ġbolt":9196,"Ġexchange":9197,"Ġreligion":9198,"Ġreluctantly":9199,"Ġmultitude":9200,"ĠThanksgiving":9201,"Ġpattern":9202,"Ġdiscontented":9203,"Ġkneeling":9204,"Ġrevenge":9205,"Ġappropriate":9206,"Bell":9207,"Hook":9208,"LCB":9209,"RCB":9210,"ga":9211,"mar":9212,"toes":9213,"zek":9214,"Ġtyr":9215,"Ġfil":9216,"isher":9217,"Ġdaring":9218,"Ġlur":9219,"Ġpiled":9220,"Ġgroom":9221,"lee":9222,"Ġasso":9223,"ĠMoon":9224,"Ġseize":9225,"Ġiss":9226,"unge":9227,"ĠPatter":9228,"Ġgogg":9229,"quer":9230,"ĠCave":9231,"ĠDumpty":9232,"ĠLasse":9233,"Ġpluck":9234,"ĠHy":9235,"Ġafore":9236,"Ġpranks":9237,"Ġcanv":9238,"Ġfluttering":9239,"Ġflannel":9240,"Ġhowl":9241,"Ġsche":9242,"Ġputs":9243,"Ġmarsh":9244,"Ġwinding":9245,"Ġslate":9246,"Ġkeeper":9247,"ĠStew":9248,"Think":9249,"Ġarmour":9250,"Ġdrooping":9251,"Ġcurl":9252,"apple":9253,"Ġsmallest":9254,"Ġbuzz":9255,"Ġreality":9256,"Ġwinning":9257,"Ġfuriously":9258,"Ġtrials":9259,"Ġdoubtfully":9260,"Ġfrogs":9261,"Ġmusical":9262,"Ġstarving":9263,"Ġpaying":9264,"ertie":9265,"Ġrespectful":9266,"Ġreceiving":9267,"Ġeighty":9268,"Ġchuckling":9269,"Ġpillows":9270,"Ġguarded":9271,"ĠSeven":9272,"Ġidol":9273,"Ġcandy":9274,"linor":9275,"Ġprettily":9276,"Ġcherished":9277,"Ġmeasles":9278,"Ġducks":9279,"Ġhospitable":9280,"Ġraptur":9281,"Ġsoothing":9282,"Ġtempest":9283,"Ġnicest":9284,"Ġresponsibility":9285,"Ġperplexed":9286,"Ġhemlock":9287,"Ġplacid":9288,"Ġprecisely":9289,"ĠEpimetheus":9290,"zekiah":9291,"ĠPatterson":9292,"Certainly":9293,"IO":9294,"Pat":9295,"Say":9296,"bred":9297,"forth":9298,"lance":9299,"Ġtot":9300,"ische":9301,"Ġding":9302,"asons":9303,"arum":9304,"arah":9305,"Ġpett":9306,"Ġinex":9307,"Ġet":9308,"acios":9309,"Ġhaught":9310,"Ġridden":9311,"iform":9312,"Ġsham":9313,"Ġupside":9314,"ĠSoc":9315,"ĠSlow":9316,"itta":9317,"Ġchoo":9318,"Ġspied":9319,"ĠCould":9320,"Ġalighted":9321,"ĠDun":9322,"ĠGen":9323,"ĠLITTLE":9324,"Ġboiled":9325,"Ġunjust":9326,"ears":9327,"ĠKeep":9328,"Ġscow":9329,"Ġsometime":9330,"Ġrepay":9331,"shot":9332,"Ġwrinkled":9333,"Ġslumber":9334,"ĠHezekiah":9335,"Ġbelieving":9336,"Ġlighthouse":9337,"Ġcurve":9338,"Ġelbows":9339,"Ġobli":9340,"ĠGrace":9341,"Ġtribe":9342,"brown":9343,"syche":9344,"Ġcontinue":9345,"Ġdiscouraged":9346,"ĠSundays":9347,"Ġcupboard":9348,"Ġpinched":9349,"____":9350,"cheon":9351,"Ġstiffly":9352,"Ġtransl":9353,"ourable":9354,"Ġmatron":9355,"Ġheavier":9356,"Ġneighbouring":9357,"Ġshivering":9358,"Ġmossy":9359,"Ġdisplayed":9360,"Ġseparated":9361,"Ġradiance":9362,"ĠAmerican":9363,"Ġhalted":9364,"Ġsarcast":9365,"Josie":9366,"ĠSilas":9367,"Ġuneasily":9368,"ĠMolinda":9369,"aciosa":9370,"Acc":9371,"Beyond":9372,"ND":9373,"Under":9374,"met":9375,"ule":9376,"west":9377,"Ġtum":9378,"heum":9379,"Ġah":9380,"Ġhugged":9381,"Ġbatt":9382,"Ġmach":9383,"Ġdate":9384,"Ġpanted":9385,"esley":9386,"Ġgeese":9387,"adise":9388,"Ġsting":9389,"Ġwears":9390,"Ġreaching":9391,"Ġupl":9392,"ĠAsh":9393,"ĠAlph":9394,"ĠPut":9395,"aste":9396,"Ġchilly":9397,"ĠCre":9398,"ĠDen":9399,"Ġloos":9400,"Ġworries":9401,"Ġorgan":9402,"Ġplough":9403,"uments":9404,"apers":9405,"ĠHold":9406,"ĠHorse":9407,"ĠOut":9408,"Ġprudent":9409,"Ġtrained":9410,"Ġblunt":9411,"Ġuniform":9412,"Ġflashing":9413,"empered":9414,"Ġenvel":9415,"Ġsmelt":9416,"Ġheadache":9417,"ĠKir":9418,"Ġseeming":9419,"olk":9420,"uckle":9421,"uckily":9422,"Ġwrung":9423,"Ġslam":9424,"ĠBring":9425,"ĠBruce":9426,"Ġimpl":9427,"izzy":9428,"Ġdecision":9429,"ivi":9430,"Ġdoubted":9431,"Ġprincesses":9432,"ĠChristopher":9433,"Ġhurts":9434,"Ġinterp":9435,"Ġeagerness":9436,"Ġcourte":9437,"Ġstroked":9438,"Ġbursting":9439,"Ġcharacters":9440,"Ġgleaming":9441,"Ġholidays":9442,"Ġleapt":9443,"Ġblanket":9444,"Seeing":9445,"Ġvolume":9446,"Ġmaterial":9447,"ĠScotch":9448,"Ġinjured":9449,"Ġruffled":9450,"ĠPantouf":9451,"Ġsubsided":9452,"Ġstaircase":9453,"Ġbeckoned":9454,"Ġbefallen":9455,"ĠFrost":9456,"Ġindependent":9457,"Ġimmortal":9458,"Ġlagoon":9459,"Ġexpedition":9460,"Ġhoofs":9461,"ĠFuzzytail":9462,"Ġassoci":9463,"Ar":9464,"Bet":9465,"Bab":9466,"Ex":9467,"eav":9468,"gra":9469,"hot":9470,"houses":9471,"mers":9472,"oed":9473,"sk":9474,"Ġol":9475,"erred":9476,"Ġmuttering":9477,"Ġder":9478,"arly":9479,"Ġwhale":9480,"Ġstem":9481,"Ġstew":9482,"Ġrip":9483,"Ġrheum":9484,"ĠSon":9485,"ĠPict":9486,"ĠPert":9487,"ĠWright":9488,"Ġchattering":9489,"ĠCyr":9490,"ĠJenny":9491,"Ġvine":9492,"umption":9493,"igers":9494,"ĠHon":9495,"ĠHooper":9496,"Ġtru":9497,"Ġflute":9498,"Ġmoist":9499,"ĠEustace":9500,"Ġglove":9501,"Ġremed":9502,"Ġpartner":9503,"Ġtext":9504,"Ġcavern":9505,"Ġworldly":9506,"ĠWhit":9507,"Ġendeav":9508,"enson":9509,"eedled":9510,"Ġreadily":9511,"Ġsorrows":9512,"Ġschoon":9513,"Ġfamilies":9514,"Ġfinely":9515,"Ġwinking":9516,"Ġfools":9517,"Ġcrossly":9518,"ĠMyra":9519,"Ġshores":9520,"Ġgrassy":9521,"Ġwearily":9522,"inax":9523,"arers":9524,"Ġharness":9525,"ĠDrummer":9526,"iskers":9527,"Ġstrolled":9528,"Ġsearching":9529,"Ġbirches":9530,"Ġvainly":9531,"Ġprovided":9532,"Ġfolds":9533,"Ġmortals":9534,"Ġidiot":9535,"ĠWoods":9536,"Ġdivine":9537,"Ġregularly":9538,"ĠIsabella":9539,"Ġestate":9540,"ĠLucinda":9541,"Ġvirtues":9542,"ĠMethodists":9543,"Ġpolitics":9544,"Ġenthusiasm":9545,"Ġpupil":9546,"Ġnicer":9547,"ĠPanther":9548,"baby":9549,"Ġobstin":9550,"ĠJesse":9551,"Ġcabbage":9552,"ĠMarmee":9553,"ĠMatilda":9554,"Ġexplanation":9555,"ĠPhillips":9556,"Ġaffliction":9557,"Ġglossy":9558,"Ġwizard":9559,"Ġbulrushes":9560,"ĠPertinax":9561,"Jem":9562,"PAN":9563,"bec":9564,"called":9565,"meline":9566,"Ġtu":9567,"Ġtew":9568,"Ġwestern":9569,"Ġowed":9570,"Ġdizzy":9571,"Ġnar":9572,"omer":9573,"stri":9574,"Ġhail":9575,"Ġstif":9576,"Ġrash":9577,"Ġresemb":9578,"unken":9579,"ĠBay":9580,"ĠBal":9581,"Ġliqu":9582,"ĠParn":9583,"ĠDra":9584,"ĠTessa":9585,"auc":9586,"Ġbrute":9587,"ĠLodge":9588,"Ġvow":9589,"ĠHarbour":9590,"Ġexclamation":9591,"Ġprinted":9592,"Ġnevertheless":9593,"Ġgraciously":9594,"Ġflutter":9595,"Ġflattered":9596,"Ġmoor":9597,"ĠChief":9598,"Ġteased":9599,"Thank":9600,"returned":9601,"Ġsnub":9602,"Ġneedles":9603,"Ġstepping":9604,"Ġvisage":9605,"Ġdreaded":9606,"ĠShadows":9607,"Ġmusk":9608,"Ġmisty":9609,"Ġyouths":9610,"gram":9611,"Ġvex":9612,"Ġstarved":9613,"Ġpolished":9614,"Ġrecomm":9615,"Ġarrive":9616,"Ġstrip":9617,"Ġappears":9618,"Ġdaresay":9619,"Ġdollar":9620,"Ġforms":9621,"ĠMaybe":9622,"Ġheavens":9623,"ĠEnglishman":9624,"Ġprofessor":9625,"Ġrepeat":9626,"Ġstuffed":9627,"Ġelderly":9628,"Ġpractical":9629,"Ġrecognised":9630,"Ġfurnished":9631,"Ġbalance":9632,"Ġargument":9633,"Ġgarment":9634,"Ġambitious":9635,"Ġaccomplish":9636,"cupine":9637,"Ġtravellers":9638,"Ġmoaned":9639,"ĠHighland":9640,"Ġmeddle":9641,"Ġpilgrimage":9642,"Frank":9643,"Ġbobbing":9644,"Ġprovoking":9645,"ĠHalfman":9646,"Ad":9647,"OS":9648,"Off":9649,"Re":9650,"brah":9651,"gon":9652,"oise":9653,"pole":9654,"vable":9655,"Ġaching":9656,"Ġsins":9657,"Ġsinking":9658,"Ġhug":9659,"Ġbidden":9660,"Ġtoll":9661,"Ġnay":9662,"anter":9663,"Ġpad":9664,"Ġpall":9665,"Ġpushing":9666,"Ġgasp":9667,"Ġinner":9668,"Ġbeak":9669,"iman":9670,"vels":9671,"lyn":9672,"Ġsaint":9673,"Ġreverent":9674,"ĠMock":9675,"Ġwheat":9676,"uncle":9677,"elow":9678,"Ġouter":9679,"Ġchums":9680,"ĠCH":9681,"that":9682,"ĠGud":9683,"ĠFat":9684,"apa":9685,"ĠHome":9686,"Ġtwigs":9687,"orning":9688,"Ġhowling":9689,"blem":9690,"ĠElinor":9691,"Ġscor":9692,"Ġbecomes":9693,"Ġshallow":9694,"Ġrepose":9695,"Ġdears":9696,"shore":9697,"onso":9698,"spir":9699,"ĠWhich":9700,"Ġcompre":9701,"Ġskins":9702,"Ġdarkest":9703,"ĠAlma":9704,"Ġholds":9705,"ĠBenares":9706,"Ġsplendour":9707,"lsa":9708,"Ġtaller":9709,"Ġillness":9710,"Ġgrowth":9711,"Ġcrab":9712,"aisies":9713,"ĠEllie":9714,"ĠAnthony":9715,"Ġministers":9716,"Ġcleverness":9717,"Ġballs":9718,"Ġrider":9719,"ilius":9720,"Ġroughly":9721,"AND":9722,"onnik":9723,"Ġstudents":9724,"ĠGermans":9725,"Ġbanner":9726,"Ġhitherto":9727,"Ġblazing":9728,"Ġricher":9729,"ĠShelby":9730,"Ġfleet":9731,"aeus":9732,"Ġwiping":9733,"Ġmaternal":9734,"ĠOctavia":9735,"Ġradiant":9736,"Ġhyster":9737,"Ġbuds":9738,"birds":9739,"Ġinterfere":9740,"Ġcrouched":9741,"Ġphotograph":9742,"Ġbachelor":9743,"Ġcongratul":9744,"ĠAlphonso":9745,"ĠPantouflia":9746,"brahim":9747,"Bless":9748,"Dav":9749,"Make":9750,"Surely":9751,"cent":9752,"hill":9753,"licity":9754,"tops":9755,"wife":9756,"weed":9757,"Ġut":9758,"Ġwret":9759,"llie":9760,"Ġdhole":9761,"Ġthirt":9762,"arter":9763,"otions":9764,"ooh":9765,"ooled":9766,"Ġraw":9767,"Ġreasons":9768,"ĠMoti":9769,"ifth":9770,"Ġshirts":9771,"Ġdost":9772,"alls":9773,"riest":9774,"ĠBO":9775,"ĠAD":9776,"ĠPor":9777,"ĠPine":9778,"oodle":9779,"ĠWashing":9780,"ĠCross":9781,"ĠColl":9782,"Ġjug":9783,"Ġabund":9784,"ĠTannis":9785,"ĠRoman":9786,"opard":9787,"umsy":9788,"Ġquivered":9789,"ĠHobden":9790,"arewell":9791,"Ġblamed":9792,"Ġconvenient":9793,"aky":9794,"Ġflav":9795,"Ġflinging":9796,"Ġmock":9797,"Ġsciss":9798,"Ġmarching":9799,"Ġhoriz":9800,"everal":9801,"Ġtreacher":9802,"Ġindivid":9803,"isters":9804,"Ġdarker":9805,"erybing":9806,"soever":9807,"Ġcapable":9808,"Ġvisions":9809,"Ġvisits":9810,"Ġpatting":9811,"Ġlandsc":9812,"Ġgrounds":9813,"Ġcasting":9814,"Ġstraightway":9815,"Ġrocky":9816,"Ġhusbands":9817,"Ġmoonlit":9818,"Ġwisest":9819,"Ġrubbish":9820,"Ġvanish":9821,"Ġcomplaint":9822,"Ġespecial":9823,"ĠPeerybing":9824,"ĠWilliamson":9825,"Ġprivile":9826,"Ġpanting":9827,"Ġcharacterist":9828,"ĠSword":9829,"Ġlingering":9830,"Ġwinged":9831,"ĠTinker":9832,"Ġsurveying":9833,"Ġdestroyed":9834,"Ġbrandy":9835,"Ġmemories":9836,"ĠPryor":9837,"Ġglistening":9838,"ĠLudovic":9839,"Ġphilosoph":9840,"Ġengagement":9841,"ĠLynx":9842,"Ha":9843,"Helen":9844,"Mah":9845,"PP":9846,"aac":9847,"count":9848,"jp":9849,"part":9850,"table":9851,"tempered":9852,"worn":9853,"year":9854,"Ġess":9855,"Ġtub":9856,"Ġale":9857,"Ġsink":9858,"inth":9859,"respect":9860,"erment":9861,"aters":9862,"Ġtoken":9863,"Ġcert":9864,"Ġheel":9865,"ingle":9866,"Ġdip":9867,"Ġdub":9868,"Ġlicked":9869,"Ġlaws":9870,"Ġpound":9871,"Ġpum":9872,"Ġpomp":9873,"Ġgild":9874,"ĠImp":9875,"idu":9876,"Ġheroes":9877,"Ġherbs":9878,"Ġray":9879,"Ġrattle":9880,"Ġsheets":9881,"Ġshark":9882,"Ġken":9883,"ĠBalf":9884,"ĠBetter":9885,"Ġsund":9886,"Ġwillows":9887,"ĠLike":9888,"Ġvic":9889,"Ġplatter":9890,"Ġplunge":9891,"umes":9892,"Ġexult":9893,"Ġcod":9894,"Ġcoin":9895,"Ġglared":9896,"Ġstray":9897,"ĠMarie":9898,"ĠMarian":9899,"Ġcrime":9900,"Ġsets":9901,"Ġwriter":9902,"erella":9903,"Ġslab":9904,"Ġsunk":9905,"Ġcompelled":9906,"Ġguine":9907,"Ġsoundly":9908,"Ġstreaming":9909,"ĠFoxham":9910,"ĠWee":9911,"Which":9912,"Ġcoldly":9913,"Ġrelated":9914,"Ġbarked":9915,"Ġwarmed":9916,"Ġkisses":9917,"Ġreasonable":9918,"Ġvillain":9919,"ursday":9920,"Ġcharms":9921,"Ġincon":9922,"ification":9923,"ĠIndians":9924,"ĠAsia":9925,"Ġfancies":9926,"ĠCran":9927,"Ġdenied":9928,"Ġblazed":9929,"Ġrumm":9930,"ruction":9931,"Ġinvented":9932,"Felix":9933,"ĠTimmy":9934,"babies":9935,"Ġarticles":9936,"Ġankle":9937,"ĠAntaeus":9938,"ĠHurree":9939,"Ġdisguise":9940,"Charlott":9941,"ĠCecilia":9942,"ĠBhag":9943,"Ġparrot":9944,"Ġdegree":9945,"Ġcorpse":9946,"ĠParker":9947,"Ġcorrespond":9948,"Between":9949,"David":9950,"ĠWashington":9951,"Ġscissors":9952,"ĠPeerybingle":9953,"Bob":9954,"Cl":9955,"Chatterer":9956,"Far":9957,"Several":9958,"TY":9959,"Wait":9960,"bud":9961,"cont":9962,"dale":9963,"fire":9964,"iels":9965,"line":9966,"oft":9967,"path":9968,"rice":9969,"sch":9970,"skin":9971,"Ġtame":9972,"Ġaisle":9973,"Ġwages":9974,"Ġbun":9975,"erlad":9976,"Ġdough":9977,"Ġdive":9978,"Ġdates":9979,"Ġlumber":9980,"ench":9981,"Ġpins":9982,"Ġpots":9983,"escend":9984,"uto":9985,"Ġherds":9986,"icip":9987,"Theod":9988,"ighton":9989,"Ġshady":9990,"Ġmechan":9991,"ilted":9992,"ilities":9993,"ĠSl":9994,"ĠBoul":9995,"ĠBenson":9996,"ĠALL":9997,"Ġsup":9998,"Ġsubt":9999}